00010010111011010100001001101111
10101010011010110001111111100111
00011001010110010101001011101110
00000100110011011001101001100111
11111001110110010101111000111110
01111110110010010101111100110101
10111100111101111000100000111111
10100010111011101011101110101110
00010101011110010100000000110100
00010111110001011000000001111100
00111001110000001000101100110110
01010110111011110110001100010101
10110100011101110010101000110111
00001001100001001000001110111100
10111101110111111000011011100100
00110100001001111100011110011100
10110001110100001001101010101101
01011101110001010000000101111001
00101111100001101111110100010110
01110110101100100011101100111000
00010101001111110011010010001001
10000001000100110100010101001010
10010110100001101010101110011011
10100100000110101011101110101000
00001100000011101110001001011100
00011011100110001111100001111000
11100101100101111011110010001100
00110100001100100110010110011010
10000101001101101111000000001011
10000011100110011000100011101010
01001111001110010011010010001000
10100000101100000100010101000010
10111000001001001110111101010011
10100011100110001011101000100000
01001111101111110100110010001010
00110100001100011100011011011010
01100000011110110101011010101011
10110001011000110100110101011110
11001010011100111100111011010011
10110001001110101001110011100010
11101010001111111100101001000000
00110011100000101011100110001110
11001000100000000011011000101111
01011101000100110101111100010100
11110001011110001001110101100000
01011110000000001100001010110100
00011010011010111100101011101000
00000011000000101100000000011110
00001000110000010001011100111011
10000011110101110101110100100100
00011011101000111100011101110000
11010110100011101110111010011101
00110011011000111010101011101001
10100001111110001100011010010110
00001101100011000010000011101100
11010101001100010100010001010000
00010010110101011011111110001011
10100000101111000001110010100010
11000100011101101100110000010010
01000111110101001011000101110001
01000110101001010011101011001001
10110001001111100100011110000010
11110000010101001111110100010011
11100110101111001011111110100001
10111101011111101100010001110010
01001110000100111110001001111101
01111000100010011111101111001011
11110100000110000001111110100010
10110101001111011100110000110010
00000110010100011010001101111000
00001111101010110110011011100100
00001001010100110110011001011111
00101101110100111011010000111000
01110100111011100000110100001010
10100111110100111001010001110000
00010101010010100100110000111110
00101111010011111000101011111001
11011001011010100110100010001100
00010001110100110110101000111000
01010100110011010001100111100100
10100011100000111000110000110000
11111100100000101111100101111100
01100111010010110001100011001001
00111101001000010000000001001111
01110101011100100101010011001011
10100101101011110000110001100100
00110001010111101000000111000011
10101101001000111001100001100110
01101101011111101001100111001011
01101101101011101011001001100111
11110100011111111101100011101010
01101110100101000000100010111010
10011110111101110011000011101111
00101100000111010000010000111010
00010010111001110000000111101111
00001101010111001000111001110011
00100110011011010100100001001111
00101011000010110010001010000110
01110101100101011111110000010110
01101100000110100001001011111010
00011001001110010001010011001000
00001101010000010100000001010011
01111101011011111100110000001011
00100011101010010100101110000110
00011101011100100100010000010011
00000001110010010000011001100100
01000011101010100000110011010010
00110101011011110101011001000101
11101010110100101001001001011110
11111000101010100011101101100110
10001001001110100100010011001101
01010111100000111100000101110110
00011011110110000001011010011101
11011110001010110101011101010101
10000111011111101110100010100000
01100010101010101011000101111100
00000111111110110000000011001001
10100001101000011110010101011010
11010000110101100001111010001011
11111110101010000001011101000010
11001110011101101110000011000100
10000011101000101110010111001010
01000111011101101111100010001111
10100110101010001111001111001010
10011010010101101111111000011011
01111110100010001011001110111010
01111101001110000111010000101011
00001111111011110100011001001011
11110011001110011000010000000011
00000101111110101100011001011111
11111011010011111100101111101001
00011111111010101100001000011101
10111111110000000111110100111111
01001110110011010011011000000101
10110011100010000000110000110100
01011110110001111110001000010101
11111011010010000001000011101101
10011101001000110110000001000101
10101111100100010111110110111011
10100111111001110001110100000111
00001011101000000010011111110001
10110111011001110111110001010111
11000111000011010001111111001000
11110011101001101110101000001111
11111000001001000101101111111101
01001011111111100111010110000001
11110000100011001001011100110110
00011100110101100100010100110101
11000011011010010000101111001100
00000101011101111100000001111111
00011000001100010101000101001011
11100011010101010010010011000011
00111000100001001001011100110010
01101110110111100001111100110101
11001001011010010000011011100100
00010100100101011100010000111111
01011010011111001111100110001111
11111010011101010011000011000011
00111000010001000111001100011111
11100010011111110011010010100011
10111001101100000000011111100110
01001111100111101110011000101101
11101011010110001100000110100011
10101110111011010101100010010111
00101011010110001100001111110000
11111110111011010000100010100111
01101011011110001100100111110011
10111111111011101000100011100111
11101011010110001100001110110011
11101110110001100100100010000111
10101001110110001100000100110000
00000110110001000010100010100111
11111011111110011100000111110010
00100110110011001000100010100111
01101011011110001100101101110011
11101110110011100100100010000111
10101011111110000100110101111010
01100110110011010110100010010111
11111011011110011100110101111000
11010110110011011001100010010111
01000111011110011001001101100111
10100001101011100100111001000111
01000011011110011000010001100111
10100101011011100100111001000111
11100001011111011000110101111111
11110111001011000101101001100111
11110001110110001011111001110100
01011111110001001000001101111100
10110001110110001000111000110100
01011110110000011011001101110101
10110011111010001001111000111100
01011110100000010100000001110101
00111111011001010110101110101000
11010010111001100111110010110110
00010111011001010111001111101001
10000011111011110110110010111011
00010111011001010101101111101011
10100011101011100001110010001111
10010001010000101100100011010100
10010101110001001001100110000001
11000010111100100001000010000100
11010000010101010100110110000011
10000000111001100100100111110111
11001000000101001001110111010011
00000011011000110101000011000100
10110001011100110000010010000011
10010000000000101100100101110110
11111001110111101010100110000011
00000010101000110100100100110101
11001101000011111000011110000011
10100001011110011100100011011110
01110011110110101011000010100011
00000011101110011001000000000110
01011101000010110100000001000011
00101001101010110101100111010011
11001101000011111011001001000011
00011100110010100111001011101101
00010101111101011001010001010101
00111010100000000011011110010111
01110100111101110001110101100001
10010100001100000001011111100101
01010001110101111100010101000111
11011110001110110001001110001011
10100001001101100001010110000010
10011100000001001110101100010110
11101000110111101011100010100011
10001110101000110100000110100100
00000101110101111100010110011011
10110100001011111110101000000100
00111100000111101011001110011010
11111100001111111011001000000100
00101001000100110000000110111010
11111100101111111010001000000110
00100001001110101110010110001010
11010110100011100001101010100000
11001010101100110101100111111000
01011001101101110011011010000001
10100100101100111000110110110010
00010101011101000110010011000010
00100010000111011000011001100000
01011110001101110011011011000001
10000001001110100100010111001010
11111100010101101110111001010011
01101010100110001001101110101000
10111101101111000110110000010010
01111110100000011101001000111000
11110000001101101000101101010010
01010010001101101011000000100000
10110110001111101100001000100000
00001011100100011100000010111000
00010010100011001110001010100011
10011010100100100110011010111000
11110001001000111011000000000111
11100111100100100001000100000010
11101011101100010001000000000100
11010110001101110100010101011011
10101011111001110000100111000111
10001111011111111001101010011011
00000001001010010100010010001000
01110111010101110010000001010011
00101011100000011100110100010110
11110110011111000111111001100001
01001001101010010101010110000001
11000110010001011100100001010101
01001011111110010011010110001001
00110110111111010010110001100011
00000011000000000101110100011011
11110110011011000001111001100101
01000011101000010100110111011011
11010101011011011101101001010101
10110000101000111100011100001101
01110101011011110110100011100111
00011000000100111001000111001111
10100001011111100001110011101111
00001010001001101100101101011001
10100101011001101011101011100111
11001000010000100011011000011111
01100100000000010001011111010101
11100000110110101001010100010100
11111100011100000001000111000101
10011000011110100001010110010000
00001001010000011000000101001110
10001000111010000011001100001110
00000101011110011110110111000100
10001000010010010000011100000110
01001001010010011011110111001100
10101110110010111100110110000110
00000100001010001111011000011100
00000110011110000100000101010011
10000001011111111001110011000101
00001000110001001110101101111111
11111110110111111011101010100001
11100101110000000000110000100010
01111100111101110101011100011101
11100101111110011001010010001001
00110000011101110101010000001101
00001110011110110111001111001011
10000001011111010000110111000101
00100110010001001110101110111010
11100010011111101011101010100001
11100010110001011000011100110110
01111100010110101111111010110101
11100101111110011001110010000000
00110100100101000000000001111111
11100010011110111010011100001011
00001001110101001010100001101011
01111010110011001011101101110011
01111010010011100111101010111101
01000110011011010100000011101000
00000011010100111110000001011010
10110000110111011111111100111110
01111010101010100011101000101100
01111010110101001011111110110011
11111000111011101011101010100101
01000111011010010100000011100000
10000011110001011100000001001010
10111000110101011011101101110111
01111010101010100011101110111111
10111000110101001111101110100111
11101010101111101011101010100101
00000111001111010100000011000000
00000111000001001101010011001110
10111000110101001110111001101110
01111110101010101011001010110111
01011111001110110100000011000100
00000101000100110100010001001010
11111111000100001110000000010110
11111111101110001000001101101001
10011111101101101100110010000100
11000111001111001110001001111001
11101101111010000000010000010100
00110111000110010111011101001010
10111101110010001100110000010110
01011110100100011111001101111001
01011011111010111110010000011100
01010100001110011100001001111001
10000111100000000100110100011101
01010111001100010111011101000000
00001111100000000100010010000100
11000110001100010110011101011100
00001111110000000101010010001101
11110110001101000111111101100001
00011110001001110010111001100010
11001010100010001111001010101000
11010100001001110111011001110000
01001010100010011011001010111000
10110100100001110111011001100000
00110010100010000001111010111010
00010110101101100110000111110011
11001010011001001100001010011010
01110110001101100111101011101011
10000111001010100110111010001010
10110100000001100111101001100011
11100011100010000001111010101010
01010111100101100110111111110000
11011100011001011111001001111010
01110111000101101111111101111001
11011110110101000011001010101010
00011101000101101111001001110001
11000011010000010100000010001010
01001011100010001100001101100100
11110011011001110111101100100111
01000000001000001101101101011101
11110011011011010011101111100110
10100000101100010111010000010000
11110011011111111011101111100110
01100000101010001000001111101101
11110011011100100000111100100111
11101000001110011001110111001101
10110011001100000001110111100111
10100000011100011000111100010010
11110011100110001001100111100100
10111000110000000000011111100100
11011100110111101101111111110101
11111001011010111000111110101100
01010110110101011001011111110100
10111101111100111001111010101000
00010110100000111001001101110100
01011010011101010111000100011011
10100011011011000001101111000111
10111001000100001100111100010111
01011110110011101011101110110101
11110111101110110100010100100100
01010110110001010100010100011111
10110101011110101110110100000010
00000100111001001001001101100111
00010011011110001100001100111010
11001010110001011010100001010101
00001110100000010000011110110111
11110100011011110110111110010111
10100101110010011000111111100100
00011100111000001100011100111101
01000111111010111001100011001101
10000101011001000000000111011110
01011010010000001111101111001011
10101011111011100011100110100011
01010110001011110100111011101001
00000010100001111010000110000011
01110110100000010011111011101111
10101100111111111100011110100111
11010100000000000010001111101111
11000100110101011100100011110111
11010010101011101110101010001000
00100010011011101011000110110011
10010010100000001110101101111111
01001110110011001011101110110011
11010001101100010001000110011101
10000100010001010100010011110111
11110010101101101010101111000001
10110110101011101110001010110011
11010001001101100111000011101001
10000011011001001000110011001011
11110000100101000001011100011011
10100100111001100001111011100101
01010000011110110000101101001101
10100011101010001100111101100110
01001000001100000000001000011011
11100011001010000000111111100111
10001000001100110101000000010000
10100001110010001001010101000111
11001010111110000001011011011100
00001010001000011100000101110101
00111000010000001001111101111001
11011010110000000001100111100101
10111001000100001001110000010100
01011000100000111111000100010110
01001011101110000000011111110001
11110011111001101111111111110101
00111011000110100100111111101101
10010011111000001001100011000100
01111011000000111001010010000111
10110010101010100011111110000110
10010100100011111110101101100010
01011100001010001110101010111101
00000000000011111110001101101001
11000011011001000010111010000101
11100010000001111011101101100001
10000011001111000010111010001110
10010001111000011110000101111010
00010101010011101010101001111100
00101011010001010101100111111001
11010001011011000000110011000101
01101010011001110011100101101001
11000011010111001000100011001101
00011101111010010100010010011010
00111100000011011000001001101101
00101011111010001001110111101011
11111100001011000001100001110101
01101111011011101011101111101001
11101101000001001000100011011101
01000101001001000001010000111011
01110111100000011001110110010000
11111011100100000011011010101011
01110110100000110100010100010010
10110101001001000001011011100001
11011001110000111100010101011010
01001111001111110111000010111011
10100010001000110011110111000010
00111110000101001111101101111011
11101010100010101011101110100010
10101111001011010001010011110011
11001101000000110100010110011010
00001110000111101110100000101011
01101010101010000011100010101001
01101110000111111111100000101011
11101010000010110000100111000010
01001110001011000111100011001011
10101000000010110010110111001010
11000010111100011011101011100111
11101001111000101011100010000111
10101001111010000000000011110100
01011011111001111010000110010110
00111011111110010011001111101101
11001001011101110000110111010111
11110010001110011101100100100101
01100011110000101011000110000111
00010011101010010000001011100101
10100011011011110010110110000110
11101010101000011010101111100101
11111010111110111011101110100111
10011010001010111100100000110100
01100011110110101011100010110011
11110010001010111010100000101100
01111011110111100011100110100011
10110001101110010011000000110101
00101001111111110000110111110011
10101001100001111101111000011010
00010100010000111111100111111100
10001010100001101100111000011010
01011000000000110111100110011000
10001100100111100111011000010010
10101000000000110101110110011010
11101101101110111000111011001000
10010101001000101100110111111100
01001110001111101101100010001001
10100001001010100100110111001000
00001110000101101100011000010011
11101000001010100011101110001110
10100001111110111100101101010000
01011100100010101110100101111100
10101011111010101001100001000000
01011100000000011111101101111100
01101000111010101000110001011011
01011000000010010110110101011100
01001010001011010000000110001100
00111111001100011010000011010010
01000000001001011110000100001111
01100011101110001010011111000010
11000100001111110001010000000010
11100111001010101111010101011010
01101010110011010011110100101111
00111010101110000111111111010011
11011000010101000111000100111111
01000011110100001001111111100000
00111001100000000000110000010010
01010010000010010111011100110000
01010000110101001110111101101011
10011010111111001011111010111001
01010111011111010011010010101101
00000101010001010100110001001100
00110010010001001011111100011011
11010001011101000011100001100000
00010001000110100111000100011111
10110101111101010001110110100000
00110011100101101101111100110111
11111110111110100011101010100001
01001111001000110000011011000000
10000100001101001110010010011010
10010100000010110111001010001000
10010101110100010001000101000010
10110100100001101111111100110111
01111110101110100011101010100001
11001111111011110010010011000000
00000100001101001111000101011010
01000111000010110101000001001100
01110101110101010101110101000010
01111000110011001011111100110011
11101010111111100001100110100001
11001111111110110100011011100010
10000100001101101110111001011010
00011011011111111110000010000011
11000011011011110010010011000100
00000010010001010110000111100011
10101101011111101010110010000111
01001010010101011110000111100011
10100101111111101010011010000001
11101000111111011011010000001000
01110100001100010001001000111111
11100001010111101011010010001011
00100101010101010000011001000100
11110000110111101011010110000010
00100101000111011001001001000101
10000100110011000010111100101110
01001010100001111111111010111100
11101110110011000010111001111110
01011110100100011111111010111011
11000100111011100011111000101100
00011110100100010101110010111110
01100111100111001110111100100110
01011011000100011101001101001000
01001101000011001110011000100110
01011110100000011011011100011010
11011101101011011011011000100100
00010010100100010111011100011010
01011110101101111100101101100010
00000011000101001110100111001010
01000111100001010110001111101111
10000011000111010110111110000010
01000100100001010111001100100111
10100011101111100010111110000010
01010111100001111111111011001001
00010011000100100110100110011010
00001010100001100111101111111001
11010011011101100101000110000010
00001000100101000111000000111001
11000010000100100000110110010011
10000100110111001011101010111011
01000110110001101001101010111110
10111111110111000011111011111000
01011100110001111110100100111010
00100001110010000011101111111101
00010001110011010100110001111101
00010100001111101110000011101011
01000010100001101000000010011110
00110110100001001011101011101011
10111001111111110101111110101010
10000101001111000011001011101100
00110111111001111000110000101000
01010110100111101111001010101101
01101000000000110011001010011111
11110100110111101011101010111111
01101000110110101001000110101010
11111001101110010110001011110100
00111101110000111000010001101110
10111000011000000100100111010111
10001011011111001000101010100011
00111000110001000110000100110110
01111110110101110001111110110011
10001000111110000001000110110100
00101100100101111101110011111111
01111010011110110001100111001111
10000001011111000000001011000111
00011010000000011110100100010111
10000011010111100010101010100111
00001010000001011110000111110110
11001010111101111010111010110011
10101111011110011001110011001100
00010101001101001110001000110111
01110010011110011111100100011111
00010011011111000011000011000111
00011010011111111111000110101111
01100011011111010010100010000011
10011001110101101000101110111011
11010011110011001010010111110101
01001011110110100001010110101001
11010001001001110101110111010101
01000000010100101001011111001101
10100001011010001111111011000101
11010011001010100101000011111000
00011001101001011101000001010100
11100010000001101011101101111011
01001100101001001011111010100001
11001000001010100101000100011010
01001010100000011001011111010111
11010011111011101010100011000011
00101110101011111110011010101011
00010110011111101110000011101011
10001011101110001000000011011000
01000110001101110111001100100011
10000110101111111011111010001011
01000011001111111010001100110100
00100111001010001110101111001010
01001111011111101110000010111101
01111110100000011110100111101100
10001101110101011111010000011000
01111110001010100011111110011000
01111110010011101010101101100100
11011111111001001110101100011000
01001110111111110011101010101101
10001101001000010100010110011010
11110101010101101011011010101011
10100100100010100000110110001000
01011110100001110011000110101100
10000101010000111100010101010011
11011010010001101011101000101001
11001110100011000101011110010010
10111101010101101011010000110000
11001110100000010100000100111100
00111101011101000001011011110011
11001111100101111000000000011000
01000110111101010011011111000000
10110101101101111100010001101001
00001001010101000110111111101110
11010001110001011101001001111101
11100110111111000111011011100001
00111110100100011001000000001010
11100100110101001110111010000010
01111110100100111011000100111001
10011011101010000000010011001100
01011100100100111100000001011101
10100110001101001110101000010011
11001010101100101011101110101010
00010110001101000110001000000110
00000011100100110110010000011011
01000010100101000010001010000110
00110100001110100110011110000011
00111011100100010101101000111111
10001110110110100010101110110111
10011001001010011100100001000100
00001111110010011000001001100110
00111011101000111100101000111110
01111111110010111010001100110101
00110001000100010100111100010111
10000111110011000011101111100111
01010001101100010000010000010100
01010100011000110111010100010111
00010011011100111100001010001101
10010111111010000111000001100100
10110001001110010101010110111100
10010001110001011001010101110100
00010001100000011000111100110110
01110110111001101111001101110101
11110001101110011001111010101100
01010100111001011101000101110101
10111000001011110100111100011001
11001110000110001000001010101010
00100000101111111100011110011011
01101110001110100010001010111110
10010110001110111110011110000000
00100010010110001011101010101010
10010010011011100001011110001000
00001110000010011100011101010110
10100000010001101110111100011010
01101110000110000011101011100100
11100100011110001011010000000000
01101110000000010101011001111100
01011010110001100000111111110000
10001100001011011100011011010101
00111000010100100101011101011011
10000000111001010100110111101100
10000000110000101100111001010010
00010010100000011111111010111100
10011101000100011110101000100110
00100010100010101011111110011101
11101111001100111010111000100000
00000100011010001110011110110111
01100011011101111010101000110001
10000001111010001100100010101100
00011011100000010110001100000000
10010110001010110100011110011100
00001001110000010000011110110000
10010101010010011100011000010101
11111011110000010001101100100001
11010101011000000100111011010101
10001001100100010001010100001011
11100100111001110011110101000101
00001001100000000001010111011000
11010100110001010100010001000101
01001001110010000001010101101001
11011100010001010101110001000101
11001110101011111100011010000000
01110010101100001011001100100000
11101001101000010110110000011000
01110010101100010011101110100000
10001001101100010111010010000001
11010011000110010011010111000010
10000110001011110100001010100001
10100010101110100110100110111010
00000110001101010110001101111011
10100011111110100011111110100010
11001100100000010110110001011001
11110010001110010011111111101010
10000110001001111000101000110010
11000010110110101000101010111000
10100100001101110011110000111001
00001000101110001000110110111000
00101100101101010010110111111011
10011001000110111000110101111000
00010011011100110111100000111011
11110000000010010100111111010010
11110011011101100001001001111011
10100010001010001000111110000010
10010100011001111110100001100010
11101011100010101011101010001110
00110011110000101111110100111011
10010000010000000101110011000110
10111011010101101100100100110010
01011010010010001011101110100011
00111011001010110100000001101000
10000001010001011110010010000110
00111001100100110101000100111001
11010001011001110101110011100101
01111001110100111001010111110011
10011001011001100010100000100111
01111011011110111001000111000011
00100001011111101110001000000111
01101011000011111001100001000111
11011101000110110100000101001010
01101110011011111001100000000110
01111111001100111000000101001010
10000110101011100111000010000111
01101110101111111011011101111010
01111011010110101001110001000111
10001111010110000110100101000011
01110110011011111000100001001111
01101011001110100110001101001010
00010110101011111110010000000111
00101110001111111010011110101010
11101001010100101001111001101101
10010001010100000110110101000001
01110111001010111001110000001111
00010011011110000110101101000010
10010111101010111111010000011110
00100110011110000110011100110010
00100010110111001000111100110110
00011011110101011000000000010000
00111110100010011001111101100110
01011011100101110110000000011000
01100000100010011000101011001001
01111101001111100110010110111010
00110110100011011011101111100100
01001111000100110110010100010010
01000110100011110011001111001101
10101101001111110110010100010010
01001000001101110011011110001001
10100100001110000001111011100010
11011101001001110111001011001001
11100001001110110111111001010011
11011000001101100011011000011001
10100100101110000001111111100000
10010100001101000110010100011010
10000010001111001001101001111000
01001111110000011011111001110111
11100100010111100101110011001110
10100101111001111100100001110100
01000100100100101011100001111100
10111111110011111010101010101100
00010110001101100001000100111000
00111101010100001111010001100110
11001111010110110000110101001101
01001100011011110010000011001100
00101101000100110100010001011010
11111100110111111011101011000111
00111111101110100000001100101010
01000100110100000001011100011110
11001101010101010010010101000110
11001100010000110001001001010110
01001110010110010011011100001110
10111101010010101101101000100110
01111111100110010010001100111001
01100111011111110001010010000110
00110100001000110100010001011110
10011101011111100110000101101001
10000001001011001001110011001000
00111011100001001110111000110010
11011110100010000011111110010000
00110101110011101010101000010010
01111110101010101111101100111000
11101111111111110011010011000000
00010101001000110100010101001010
00011110000001101111100000011011
10000001000010100010100011001000
00010100000001101110001001110110
11100011100010011010100001100000
10010101100000101110100011010100
01111110000010101111101100111010
11100101111110110001010010000000
00110001001000010101000001001110
01110011100001111100111010111000
01110111101100110111101100100000
10110011001111110001010000001001
00000001000000110100010101011010
00001000100001001110001011010101
10011101110010101011111010111000
00011100000111101110001101001011
10000001100111001001100011100010
11101011100001101110111000110010
01111110101010100011101110111100
11110101001111110001010010101101
00100001000000010100010111001010
11101101101111110001010010100000
00000110101000010100010101011010
00010010001001101111001111001011
10000011100010011010110011100110
10101011100001001110110001010011
01110100001010111111111110110010
11100001100111101100111101010011
10110110101010000111101110100101
01110011001110100100000100111001
01000010100000010110001010000100
00110011111101111101011010111011
11100010110010000010111110010110
10011001101010100000110111111000
11011001011000011010000101111000
01000011100000100001100111011001
10110010001010000011111110000000
10111011000101101101111100111011
11101010110010001011101010110110
01001000101110110100000011000000
10100101101000101110010101111100
01100001000110101010100011101011
11111010101010001011101010110101
01011111001111111101010110110001
01000011001001001010100011111110
10110111110011101011101001110010
01101110100010100010101010101010
00011011000001110101101001111100
00010110100000110010001000110000
00110011100001000001001100011111
11011100110000010100111000011001
00111110001111111110100011010110
00100011101010100010101110101010
01001111101110110100110011000001
10110101001000111110000101001010
00001011000010000100101110011011
11011111110000000011100001101100
11000100001110111010000000010100
00110001101010101001000101001110
11101101100110101000110001010100
01111110111010101011001101111100
01010011101110000100100011001001
00010101011000010000000001110100
10100100100011011111111111110010
10111010010100000011001010111000
00001011001011111110110111001000
00001011101000001011100010011000
00100110100001011110011100001010
01110010111100100011011010101010
01111100000001111111011101110000
11011100010110000101101000111100
11001110101111111011011111000010
00100001011100101101011000011010
11110110000111111110101101110110
00111011111110001011101110101000
00010100010101111011011100010011
11001100010101001101110001011100
10110100011001111010111101110000
01010100110101101101001000111100
00011100011011111110001111100000
00010001110101011100000010011000
01111110001100111001101010111101
10101011100110001000001110100010
10110110001100111010100010110110
00101110101110100000001110100010
00011011101100110100010010011110
10100100111001110001001110110001
11111110000000111001101001011100
00011110100110001100001110000010
11111110100000111110101000010110
01101110100110101011001110110010
10011000101100111100001000011110
01101110111010111101001111110000
01111110000000111001101001110101
10010101011110000101001111000010
00110100000000111110001000110110
10010111111110001100011110110010
00011000101100111100001000110111
10000100111111001111011111110000
11001010110100000001111111111001
11100000001111010101111101110111
10111000010000000001110101110110
01001000100101110001101100110111
11111111011010000001010111101110
01111111101101110110010100000010
11111001000100000101010111111001
11001001011101110100110011000001
00010110001111110100001111101101
10000001000101110000010011000110
10110110000010101010001111001110
00111011101111100011001110101011
11110000100100001001111111110101
10011001010110100001101001100001
11110000001111111101110001110100
01001011000110101011001010101011
11111000001110111110001001100110
00010011100110100110001110101010
00110100100101001111011000110111
11100110100111100011111110100001
00011101001000110000000011000000
10000101110101011110000001111000
01111100000011100111000111001111
10111101101100010101011010000000
10111100110101101110111000000000
11001110000100101011100110101000
11001111011010110110010011001000
00010101010100011110000001011011
11111100110111101011111100011111
01111100101111000001111110100001
11001100101100010100010011000000
10000010010101111010101101111001
11000111001010000110100011001001
10011101010110010100111001001011
01111000110111001001101100101111
01111010111111100001111110100011
11110000001110100001000011011101
10001001000100111000011100010010
11100000001100001000011111011110
00111000000100111001001100110011
11011000001110101101000010001110
01110000100101111001010111110001
11111010000010101001111000000100
00010010100100000101011110010011
10110010100010101100101000000110
00011010100100001111001110110001
00011010100000010100000000011110
01011110100100111111011100110011
00001010000000111100111101010111
11010111010110000110111110010001
00001010100000111000000000000101
10010011000110000110011110010010
00001011100000111101000000011111
10000011001111000110110110100010
00011011101000110001011011011101
10011001011100111110010001011111
01100011011101100001101111001001
10000011101101001000001001100011
11111110011111101001101111111011
01001011101101101001101010011110
11101001100000000001110111011111
11111001010101110011111001100101
11111001001010100100100101100000
01011110010000011000000001010111
10110010111000111010101011101110
01111110100111101010000010111111
00100001001010000100010111001101
00110010011100010011110001100101
00000010101010110100000100001110
10100000001111100111010011000011
00110010010001111110001100101110
01101010111111101010101010110011
11111001100010100001010011010000
10101101000100011101011000011001
11111101100000101001010011000011
11000100000100001001001000011101
10111011100010101101110110001000
01011110000100011111001000010110
10100000100010001101111110011100
01111110010100100001101111110101
00101010100010000100010110001100
01001010000100110111001111011101
00001011101010010101000110001101
00000010011100110111011111000111
01001010001110110100011000001101
10100001011100110010110100011110
01000010100110110000001101001111
10100001001111100010110110001010
00001000001110011100101101000110
01100011011111001011101111100111
00001000001011010100001010001001
10100011100001111001010010000110
10011000101101010011011110001111
10100000111111111011111110100011
10101000101100000000010001110110
10010001110001011101010001100101
11011010011111000011100000011001
01100010001110100011000110000010
10011000100101000111101000111010
01001010100010011001101110110010
10111001100100000001010010110000
11011100100000111100010101011011
00111010011101111110100110101011
10100010101111001011100110110010
10011100101101110110010000111011
10000010011010010100010111111010
00011000100001100100010011111011
10011100011010101101010111111010
01000100010010100101000000001101
00100001100100010101110101001010
11101100010110101011111010010110
01110000101100101101010101101000
10011000011110101100100000100100
00010101110100111101000101101001
01111110010100000110101000111110
00100011100111001111110101000010
00111110010000101110001000110110
11011010110110101111111110111001
00011110001010110100000010000100
10000001111101010100010101011010
00111010110010010001111000111100
01010011010101000100100101000010
00111110100000111111101000010101
11100001011111100110100101100010
00001100001010111001100001010100
11010101011110100111011101000010
10001010100010001100111101011010
01111010011110110111101110100111
00001000100010011100111100011000
01011010011001110111101010100110
00001010001010010100011100001001
01000010011100010110110010100011
00001000001101110101001011011001
10000001000110100100110111111011
01000000000101110100101111011111
10100001011111100000111111100110
11001000000101001110101101010110
00000001010111101000101010100110
10010000000100001011101101110110
00011001010110101100001111111001
10110000000010000001100101110100
01011101100110011100000101111100
11110000001110110011001110110101
00001001100110111100010101110100
10110000110000100101111101011111
11001100010011010100000011110101
01011010010010100101101101001101
10101001010001000100010001000111
11111110010110101100101001000111
00101101111011001011100001100101
01010000100110000101000101010111
11101101010000010100010101000111
11010000110010101100101100010100
01111100010000000011001001000101
11011001011110101101000000000100
01111101110000000011000001000111
11010001110110000001110011010110
01111101011000010111011101000111
01010000000110000100001101000100
11000011011000000011010001000111
11011010110010101100001000000100
01110111111010000011011110000111
10111100111011011010011011100100
00110010100101001101001100011000
01111100110011011110101011100110
01010110101101001011001010110000
00111011110001011010000100111101
01010111001101010010011010101001
01110100111011011110111011100000
01110110101111101111101010111011
10011101011011011110000011101111
00100011111111001000001010101010
00001000110001011010101100111111
01100111011111000000101010101001
10111000100101011011001100111100
11110000000111101001101010110011
11111101111001010011111011111100
00000110110101011101001010111001
10011000011101010011111101111101
10011100110111010000100101110001
10100100000001001110111100000010
01011010000010001111101010111000
01101100101011010011011100110100
01010010100100010111011000011000
00000100101001011011111010000100
10100011001110000001010101001010
01000110001101010010011110111011
10000001011101001000111101011010
01001110000101010011011100111111
10100011011111100110111110001010
11100100000100000010011000110100
11100011111100010100110101001010
10100110100001001011111110110100
01011100110100111111001100011001
10101100000111001011111101111101
01001011110100011010100101011000
10000100101001010011011000110100
11001001110100110100110101011011
10000110001011010100001100001010
01101011100110100010000110000010
00001110101111010110011011000011
10100011001110111000010101001010
00000000101101010110100001000010
10100011000110011010111001100010
10001111001011010010001100011011
01000011000111001011101011010010
11111101111101011011111000110010
01110110101110000101111110111010
10100001011111010011010001101001
00000111110110011100000001001000
00011111011011010111110100101001
00100011110101010100110001000000
00111110111001000111111100111011
10110111111110011000100101110000
00100111111001000001111110111001
10010100110001111101110001010100
00100111100101111010100010010100
11111100001100100001100110101000
00001111001001110011000011001001
10000101000100110000010010001000
00001111100001100001010111011011
10111100001110100001110110011000
00100001000001101010100011010010
11111000000110101011100101111000
11001001101110110011010111001001
10110101001100010000010111011000
00101001001101101101110001011011
11001100000110001011100101101000
00001001011010101001110011001001
10101101000100011000100001100000
01100001001010101110110111001000
11111100000110001011101001111000
10000001011010100100010011001010
01001100000000011011101001011000
