10110000110000111010011101000100
01100000011100100010100001111001
11110000100011011000010000000000
11011100011100111010100111011001
11100000011000110100101010011110
11100010110011110110001001011101
10111101000000111110000000001001
10101011100100000010101101101101
01010000000111001000100001001010
10111100001001011010111110000001
01010011000110000101000010000110
00110011000101100110101011000100
00111111111110100111010101110110
00111011110111000110101000100011
01111101110100100111100110111011
10101001010011010100011110111011
00001101001110000011000011111111
00110011100110000100001110101010
10000101111010101001110100011000
11111111100010011000010100100010
10100101101000100101110000011111
10101111011110010000011101100010
00000100100001000001111000001000
10111100011011000001010100000010
01000110011101001101101011000111
11010111001011110101010001010010
00000100001010010101011110000111
11111001110101000111010000100010
01000000001001100001011100111001
11011100000000111001010011000011
11101011101111010110001101101101
01000101111100110111010011100010
00000011001111010000011101100001
01000100101000101011000010000000
01000010101111001001001101100011
11001100000001111111010000010001
01010010110110110111101110100000
00110101000001101100110011011100
11111001011000110111101010111001
00111011110110110110001111000110
00011011110000110010010001000111
11101111010111101110010100110100
01110010001001001000100001011011
00111100001110000110010111100000
00011010101110001111110000000110
00110011000001000110011100000110
10000101111000110101010000011101
11100011110110000001010101110010
11100010011011101000101100001010
11001101111001011000010011001010
10101111111001100100011001011011
00100011111110010010000101101110
01000111101011111001011000000100
11100111001001101011000001110111
10011101101001011101000001100110
00101001011110100001000100101001
00011001100001111101100010100100
00110001010111001011000100100001
11000000000111101101100110111010
11110001100001011110101111110111
11111101100001110100011001111111
00101011100110000001000100101001
01011001011101110000111011010001
10100000111011011001001100000000
01010010010111001001100111000011
00110001010001010100011011010100
11110111111101010001010110100100
00001011100001101001010011001010
01110111111101001000000111001001
10001011010011111001010000011000
11011110111111001000100111011001
00100001110100000111011011010100
11101100011010111011110100011110
00110001010000111010000111000011
01101101010100111010010100101100
00100011000110111110000101000011
11101101111110111011000101101111
00100011011101101110000011000010
00101100101000100011111000011000
10110011100010010010000001101010
00001101011000110011101011010101
10110011010001011010001101001010
00101100111110110111101101010001
10100001100101011010000011001010
00001100001000110111101100010011
00010011100001000010001010101010
01001100101000110111101011000001
10110011100010010010000011001010
00111100001010010111101001100001
00100001100011000010000010001011
10001010011000101010011000011100
01010101001110001011101101110110
10100111101000111100011000011110
11010111001110011001101101101110
10100110100010101100111100000111
00111110011100111001001101100110
11101011111000111010011000010000
11010001101011001111001011011110
11100111110011110100001111000101
11010011011001000101101011111110
11000110000011110010101111010111
10000100010100110001100111101110
00001011010000111110101011100000
11000001110011010100001000010110
00001111100111110110100011101000
11000000111011000110101010000110
00001111000111010011110011011011
11000010100010100101100100010111
00010000010011011001101111010000
11001100110001101011110010011101
10111000001001010111101011111100
01001100111011101011110010011001
00011000011001011000101011100110
01011010101010111010010010011100
00110000100011011100011101000111
01011110011100101010110001111000
10110000101001011000111100000100
11011110011101111010110011111001
11110101110001111100000000001100
01011100111101110111010111111000
10100010101110101100010100111011
01010110001000110111111101100000
10100000111101111100000001001111
11010100011010110110110100111000
11100111000100111100000010001000
01010110101000110111110011100000
00001101101000100111011100111001
00110110111110010001011101101000
00011111000001101000111001010011
01101100001010110001010100001100
10100011000001001010011010111100
11010100001011101111011111000100
11010110001110100111111010100100
11011110110011101110001000010110
11100111011001101110010001011101
01000110111111010011011100101101
01100010011111001000100010010001
11010100011000111011011010000100
01011010011110001110110010110110
01010110101010000110001100010000
11100001011110100100010100111101
01010110010110000110001101000010
01001111011101001000100111000101
11000101011101110101001000000001
01100010110111001101110111011001
11000111111011111000011001010110
01100100111111001001101111001011
00011111000001100100011011001010
00100100101011000011001110000011
01111101000001101111010011011010
01100110101111000101101111000111
11010011010001100100001011010010
00001100001011010111001111111011
00100001010100000101001111101010
00011001000001110011001100110001
01101101000000000011100110101010
01001110101111010001101111110011
00100001100100110101001010100010
10001000000011010011001011110011
00100110100110000001101100101000
11000001010000111111010000101100
11001110011010111011100100101000
01010011110110000011111111000001
01111001010001110100011110100001
00010001100000001111011110110001
00111001110011110110010100100000
00011001100000001111011101010111
00111001011001100011110110001000
00011011110100101011101001001110
00110001000110110110110100100000
00011101010110100111111110000100
00110011010101000110110100100010
10010101010000101101110010011100
10111011001010010010111110100000
11001011100110110101010000011100
11100011101110010001110011100001
10001111101100000101110000011110
11110011101110010001011100100100
00001110101110101101110000001110
11110011101111101011110000100100
10111000111000000101100100111011
01011100111010000010010111100000
00111100110010000101100101110111
01111011111100100110011101110110
00010000010010101001100100010000
11010110000011001110101010010110
01110010001110001001000110100110
11011100001001101111111011010100
10101110101010101100100001011110
01111101111110100111111101101110
01010010010111001000100100000000
11010100000001111111111011010100
11110010010000001010000000001010
11000101011000111111011101101000
10100111101010110010010000010100
10110000100100001001101011100010
11000110000101001010100001001011
11000101010001110111100110010100
01001010001111001000100110011100
11100110010001111010100101010010
11000100100111000111101111110001
11110110110100110110100111010111
00110100000011000011101101100011
01011000000000100110100011010011
01001110111101101101100111000111
10010110010100111011001011010100
00110100100111011011101111110101
00111100010101101111100011110111
00110100101001000011100101101111
01011100010010101110110101110011
01001100100111000101100111010011
10010000010100100111000001011111
00110100101111010011101111110011
00111100000100100111100111110001
10110000001000100011111100110101
00111100000100110110110101100011
10100100000011011000101000111100
11111100101100101010110111111111
11101110110001101100010011000110
00101000111000110000111101001100
01010111100001111000101100001000
00101000011101111011110111100100
10001110000000001001101010000010
00111001000001001110111110110110
11001101000010100110000110000000
10111011100101000100101010101011
01010001110100100000010011000001
10101011010011111000111010000101
10001110100111001001101111111011
00110001101011010001111110110101
00011110101110000101110011110010
10110010100011000000101010010111
01011110110110001101111011101111
10111001010011100111111100010111
11111011101011001010101110111000
01111001100011000111011011010110
11000010111001001000100010111011
11011011101001010111111111010100
11100010010001001100100010011011
11010010001001110110011111010100
10011010111101001010101010111011
01010100000111000111011011100100
10101010010011001100100010111110
01010001001111000111111011010100
11100010110011001010100000000011
11010100011001110111111011010101
01011010011001001011101010110011
01011001000001000111011011111100
10111000001000000010101010111010
01011001010101000111011011110110
10101000111001001010101010010011
01011101011000110010001111111100
00000011100111011010001001111000
11000100101010111010101010010111
11111010111110010110010001111110
11000011100011110000101010011101
00111011111110001111110001100110
11010011001111000100001000110110
01110010001101101010100101100000
11111100001001111001001010011101
11110011111101001011110110100100
11111101011101101110011010010111
11011001111100100010110000111011
01110001111011010100001110001010
11110000000010101110101000011110
11111100100110110010011101111101
10111000011000011010110000001110
11101101101110011010010100001001
00011110101000011011110000001010
11111001001011001110001100000100
00011111000000111111111010000001
10101001000110000100010100101010
00011110010001001010001010011000
00110001101110011111010110100110
01010011100010000000101011111010
01110110000001110110001111010111
10101101101001111110011010010111
10000100011110011100000001111001
01100010101011011010011010111000
11011100101011111001000000011101
01100110111011001110101011101111
01010100011111100111011011010100
11100101101000010101011110000101
00010110010000100100000001111011
01100010001001001000001101110001
11011100010001101001010011011001
10001101111001001110000000110111
00000000111100100111010111110000
11010000010111111000010100011101
00011100101010110011101111101001
10110010001110001100001001000110
01011110001000100011101101110101
11110000100011111111111100000000
11011100101001001011100111011111
01110111110111001001000011000111
00110001011001101111111010000011
10100101100010100101000110111001
10101001010100000011101110101010
01110010110001101010011101100011
10101111010001111011101011011001
11001101011101010100110011111011
10100011101110110101000100000000
00001101101101000011010010110011
00111011100010110101001000000010
00011111100101001111111001011111
00101111010110100101101100111001
11010110011110001001100110011111
00110111010100111101101101100100
01110000001010000011101110110001
00111111000000110101111011000110
01101100100010011111101001100011
00101100100010110110011111011100
10010010101110100101100110011111
10110111010001001101001011010100
00010000101111000001101101001111
00110100000000100101101111100110
00100000100010001111111001100010
00111100000111100110111111010011
11000110100110000000100111011110
00010100000001001101101011010100
10010110100111000001110111011011
00110100010001000101001111100100
10100010100011001010111000101111
00111100000100110110101111100101
11100011011111001111010101100101
01100101010100110101010000110110
11000101111001100011011100111001
00101011011101101100000000111110
01101111111001000001010101010011
10111011011100010100010010101010
10011011000110111110000011101101
01100101110110100111000100100100
00011010000100100011110110100000
11110111100000011110000010000100
11001100011000100101110000011111
10111011010011010010011100110110
00011010100000111110110011100000
01000100110001101011100010011101
00000010100101011111100011000100
11010100101000111111010000011101
10001010101010010101100010000110
10111000100011001010011111010100
11110000001111011010101000110001
01010110001111011001001011000000
11100110011101011110011101100110
01001010011110100111000101011011
00010110100111011011111100100100
11010100001001101000000000001000
11010010111001001010101010101011
11011110101011111011101011111100
11000101111000110110001000111111
01101110110100100111100101111011
00010010000000111010111111100010
11000100001001111001100110001101
01000010000001001010101001101011
01010000111010100100101000011101
00010110101010110010011110110100
01010110100000101111100011111111
01010010110000101110011001110001
11001110011011111001101100011101
10001101010101111111000110100101
00001101011101100100100111110110
11010101110010100110000110011001
11000111100000110000101111101011
01001001111100110100010001010101
11001011111110110101111100101001
10001001100101111000100110101000
11000100101010011011100111010111
00011010001110001001110111000010
11011111000001110110101011000110
00001000011110110111110110001110
01111011110011100100011100001111
11100011101101011001000100110010
11011110101001111010111011010111
01101100111001001001101001011011
01001100001110110011011101011110
00001000101010010111011000010111
00111000001010000110001000001110
01110111110000101100111000000111
10111011010011011000011100101001
10001101100000111100100110101000
00110110100000010110101111110011
10110101000110100000110001110111
10101110000100110000100101100001
10101101110000100101111110011011
00100000111010010100011100001001
00100011000111011100100011100110
11010100001001101011110010010101
11100110000110001101111111100100
00011000010100101111110011010101
01100101110111000011011001100001
10000000010011101100010000011001
01100111010111010011000111110001
01000001110100101001010011111101
10100011001110010010001111111000
01000000100100111111010011010101
10110000000001010101101001000111
10111101010101000010111101101010
00110011000000101000111100000000
10101111101000001001111100001010
10101011111001100100110000111101
10110111010010010000111100100000
11100010000010111110011000111000
01001110101110010100111000110110
11101111010000001100000001101111
00101111001110010101111100101100
01001111000110000001010110101000
00110000000001001001101010000110
01111010110101011010001011100000
01000101001001001111100010010110
11101111110011111111001110111000
00001011110111011101101010010110
01000111110111010001000111110111
00000111110001111101101010010101
10010011001101011010010000111001
11000100101010111010111010011100
10001110111010010110100001100111
01000010011111100111010001110110
11010110110110001011110110011000
01110100001001001100010010000110
01110110110101001110011011100110
01001100011001111011011110111101
10001101111010110011011110111000
01011010111100011110001011101111
01001110111001001000110011000011
11010100011011110110011011010111
11101100100000110110111110011111
11001111111110010001111100101010
00001100101011000011111011000110
01011010010011101001001000000011
01010100110011000111101110000001
11001001010101100110011101110101
10110101010000111010000001000100
00001100011010101010110100001101
00010010010000111010100010100000
01101100001100001110100110101001
11010010000011111010100110110000
10000100000001111110100011010001
10101101000000111110010000011000
10001100101110010010110100111101
00000100000001111000110001100010
11001110101010111011110000011101
01000010100111011010101111100110
00011100001001101110110010010101
00000110100000010101010010000001
10011110010100011010111010011111
01000101010010101001000111100101
10001101010101100000110010011101
11001100000010100000100111111001
00001100100000110001110110001000
11001010111110101011101010101010
10011010000000011000011010001110
10101110101010001110000011001110
01010010000111100110001011010010
11100110010111001010100110110000
01010100011001111111100011010010
01001010101101001011101010100110
10110010000011011110111010000110
10101100001011010110001110111110
01111000110110000110000111111011
01010010110101011010100111100011
11010100011001111111100011010011
01001100101001000111101010111001
00110000100000010000111110001010
00111100101011010011101011110111
11111000111111000010001011101011
01011010000101001010101001100011
01000100011001111111110101011001
10101011100111111010101010011010
01110011101110011101001010010100
01100111111100001011001011001011
00100011000101101101001000010110
10100111101110010011001100111000
00110101000100101101000011100101
00001110010001000011101011010101
11100011101111111100000010110010
00001101011011000011101110011001
10100001100110010100001010001010
00011001111111000011011001100011
10100011000010111000000010000011
00011100100001010111101101000111
00110011110000010000001110111001
00011100001011100111111100100100
10111011100001011000001010011010
01111000011001100111111001100111
11111011011011011010011100011000
00110100011111000101010111111111
10111011010110010100011111101000
01101101011100001000010111100011
10101011010010001101011110101000
01111101010110001001010111100011
10101000010000001101111110000010
01100100111010000101111110011110
10111011010110010100011101000010
01101101111000000100010111011110
10101011010110010000011100101010
01101101110100001000010011000011
10101011010010011001011110001010
01101100111110001101111110011010
10111011010100010100011111101010
11101101111000000101111111011110
10111011110110011000011110101010
01101101111100011100011011011000
10101011110010011001011110001010
00110011110101010001110100011011
00101111001101001010110100110000
10101100101101000101100100011100
00111011011111010010100100111101
01111011100111001101100100000100
00111011001111000010111011010101
00110011110101110001111100011011
00001100111100001010110100111001
00100110101111000001110100010000
10011011001000011010010110111111
01101110111111001101101001000111
10111001011111000110011011010101
11110000110010110001011100111000
10001010101010011010110011011001
01110010011101001101111001000011
10001000011010000010111100011100
00111111101111001001101101001100
00011000001101000010010111010100
00110000110011011011111101110101
00110101110101001010100010110101
01011010010010001011100010000000
10110001100100000110111110000100
11101011110010110110000000001100
10101010100110011110110111010111
10000100110011010011110000111011
10111011100010011010111101100010
01001110100100000001100000011011
10111011000110010100011101000010
00101111100110001111001000000100
10111011000011001110011010000110
01001111110001001011111100000011
10111111010101001100111010100010
00001101011000100111101110011011
00111011100001000100011110100010
00001111110010100111001111011011
10100001000111010110101110010111
01110000100011011000111110111011
00110100111110011001101111101001
00101010110101111100111001111110
10101100101110100011101101100101
10100010100001011101111000101100
00100100001111101011100001110101
00010110010010001110011111100111
10101011000001011101101110001110
11111101010100111110001100100001
10101011010101001101110110100010
11110111110101110000010111011000
11100111111100111001110011101001
11011101011100100010101010011011
00100011101011000101101100001000
00001111001110100011010010011010
10110010100010000001101001000111
01010010100111001001111011000110
11111111010011111100011000010111
10101101001111100000110010011010
00101110101110010011001110101010
00100010001111010001111001000111
10111111000011101011111001000110
10100000001010000111111100111000
10011110100010001001000100101010
01010111010100100101011010000100
01010011001011111101111010100110
11100101111100110110001110011001
00100100110100010101100011101010
01110010100110000010011101100001
00011100010000111101111010001001
11011110011101000110000011011111
11010000101010010011101100001000
00001010101111010011011011100010
11010110100000101011100000010101
10010110100101010110101001111111
00001100011110100111100100101101
11000010111001001111111000110110
01101001001011010111010001000100
10100000111001011000011000111111
11111011101110100111011001101100
10100010111101001100010000010101
10110111011110100011011001000100
00011001111011000010101000110100
01110001011001001110010111011110
11001100011010000110000111000001
11110001010001100110001011011010
11001101011110100100000111011001
11100001110100110001001111111010
00011000101101111010111000101010
01110111001010011011010100100000
10011010001110011110100011101110
00010100101100000011100110100001
10010010100110011010100011000010
01010110100011101111101011110101
00000000111010110011111111011111
01001111111110101010010001010010
00001000101000000011101010010101
11011010101100010000011000001010
01111000001011010111101011010100
11001010111111100010010010011000
10010000011000000111011100011111
01001111111101000000010001110010
00010000000001000111111000000011
10011000000000000000010100101010
00111000001000010111101011000000
11001000100111000000010110101000
10100011010110001010010100011001
01000100010101001100110010100000
10000001000101001110011100000011
00110100000001010100011110101000
01011001101111001111011111001100
01101110000011010100111111111000
00011011010100111001011101001110
00101011011111101111100000011101
00011001010110000001001110111101
00100000110101001001000110000101
01011000111111010101000011111101
11101011100110000111101001011101
11001101010110110101011100011011
10101011000110010001000101101001
00011000010000000001010010011111
00111011000010110001011100001100
01111001011111000101101110100101
00111011011111000101011011100101
00011111101110101101010110000111
10111110001001100111010001100111
11010100101010100101101100011011
00111011011001101001011111001000
10011101011010101100100100011101
00111111001110010011011111001111
01001101101111000101011011101011
11101000100011000101001010100010
01001011001110010101010001101011
11100001100011100111111011000010
00000001111110000001010101111011
11100011100001000101011010100010
01011111001111000110001011100100
00100011000111110101111111000110
11011011011110111010010101101100
01100011100111111111100011010011
10010011010110000001010100111011
01100011011111101101001001100000
01111101001000100011001000000100
00110011010110111101001111001111
01111111111000110010001000011100
01100111011100111111010011010111
10010010111000000011011100010111
01000111010100101101010101000000
01100111110111000001001101100000
01010011100101011100111010100010
11000101110100111111101111100101
11000011110001010111100011111111
11110101110110110110001101110000
11010110111000111001100011111011
00001000001100001011100110101011
10110111000011011001001100000100
10001000001110010111110000111000
11010110101010110011100011001101
11100010011101011100111000100110
01011100011111101011100001001101
00011101111110000111110100110011
11111011010000100001011110001110
01110000011000100101110100110001
01111111001101100011011011111110
11100100011000101000000000011001
01111001011100000111011101101000
11100100001011011110111101000100
10101110111101100001010001110011
01111000000001111100101001000000
10000001011001001101110110110001
10110000000011010000111010111000
10111100100001011010111111110111
10101001011011010111010101010001
10100011110110000101000100110011
00001001001111010011010000011001
10000010101010001000000000000011
01100010010101001001101010100010
11011001001011011100011001010111
11110111101010110101000101010101
10110110110110111101000001100011
01110011111101100101010001000101
10101011010011111000001000000011
11100111011101001101100110101001
01110001011101001100011011000010
10000101101011101100111010011110
01011111101110001100011110110100
00001110101100000101011111000111
10111011000001101100011101110110
11001101000010100011111110011000
10111011000001001100111110101110
01001100010111001100111111001010
01010001111011110010010010110010
10001101010010110101000011011001
01000001110110010000001100100010
00001010000101101001111011000000
11010101000001111000010010010101
01001001010111000010010101110011
01000000111000110110010010010000
00001000010111010101011111100100
11011000110001001110010010110110
01111001010101101001101101101001
11000001111000111011110110111101
01101100011001000101011010010001
10101011010001000000111101101110
10101000111001001010001010010000
11011100000001001110011011001110
11100111111101011100000001000111
11011001011110100111110001111010
10011101110000100111111100011101
00111010010100000100111100110110
01111010010100101110100011000110
00110101010001011110111110010110
11110101110010111010101111101100
11010100111100100111100011111011
00000111110110100111110011001010
10111110100011001010111101111100
10110010000111011110100011101000
00000100101110010011110111010101
10110010100110011110000111100110
01001100001111111111100011110101
01010111010100100111001111110100
10111011111011011110001000011110
11010101111010100011011110111000
10101011100010010000001101001010
01110100010001110000000001011011
10101011001010111001011111001011
00001010000101011111101001101111
00000001111110000110001110110101
01011010000010000111011110100110
10111011100001001100001011010110
11100001110000100111011000001111
10101011000010000100101101111011
10000101110000111010111101111001
00000011111101000001101111111001
10001010000001000010111011111001
00000000101110000101101010110100
11001010001010110001111000011110
00111010100111001110001001111111
01010011110110111100100111100111
00000101011001100111110010000001
01010111010110000001000111010001
00110001111101101110001110100101
10011001000000110011000110011011
11100011110000011100101110011110
01100100101111010101100111111000
11101001101111100111010011011001
00101001111101000000010001111011
10100001101110110001000100100100
00001010100001001011011000000110
00111011000011001000010000100100
10010100010000010100000001000100
01111101011100101110010110001010
11000101010000101111011000000100
00110001010001101100010100100010
10101101010000110010101000011001
00101111111100011000110110101001
00010110000110001011011111100111
00111110010100100101110101000010
10010111100011010011011110111000
00101101011100011001110100100001
10011000011001000010110000111001
00111111001110010001010101010100
11110101000110111010011100001001
01111100011100111111100011000001
11110010100100111010010000101110
11001110011010111011110101111101
11000110100001001110110100011110
00111110001101111001110100100101
00000011101110111011010101000000
11010111010001101111000000000111
11100111110100111100010100000100
11011101011001101111000001001101
11000111010100111100100110011000
10110111011001010001110110101100
01011001101000010101000001111100
10101011111001001100101101100010
01011000101000001101100111101011
10100011011110000100011111100010
10011011010000111101110111111111
10100101111000000000101111100010
01010000100011000101010111111001
10110011111001000100001011110010
01000000000001100101010111101110
10100011111011011001010101000010
11011110000011100001101111110110
00100001111011001100001001000010
11010010011111110001100110100011
00101011101111011000011000000010
01001101111011101101110011001010
10101111101001001001011100001010
01111111000110000101100011100010
10111101111011011010011001010010
01001010010001001110111010111100
01011000101010010111011101000110
11100000111000111000010000111110
11011110101110111111010001111110
10100110010001001100010000001111
00011100011111100101001101100110
01111010110101001010100010110100
01010100001001001111011011011111
11100010111110011110000100100110
01011100111101101111100011111111
11101101011000110110000111011001
11000100111110100111100111101011
11110010010101001110100000111001
01001110110010000011111100011101
10101011010111011010000011111010
01000000111100110111100110111101
00001011000110010001000011100110
01000010100001101111101000100101
01111110111011110011111010011111
00111011000011011101010110011010
00001111011101000010000010011011
01100000000111000100010000001110
01000111101111011110010011100110
11000001101111001110000001010011
01111100011001000011101011010111
00111011010000010101010110001000
00011001011111010111100110000000
01110000110001001000000010000011
11001101110001110000010011111100
11000001110110001110000000110001
11111100001010111111111100011111
10111010001000010001100110001001
10010000101101111100110000110110
11111110101110100011100101001001
11100010110111011100110010110100
11110110111110101110010001110101
01000101111110011011000101101011
10100000111001101111000011010011
01010000001111100011011100111001
10000000111001110000001000010001
00101000111001000111111001110011
10001011111011011010011100111001
11010101100010100010001100111111
10111100000110110111111111100000
10010000000000101010011000100110
00111100001100111101011110100000
10011000010000101110111000001000
10111010110110011100011100101000
11010110110010101100011010100110
10110111001101101111111011000010
10010000110000101110111000011010
00110111011100011101101100100000
10011000000000111010111010011110
10111111000000011000111110101000
01111111010101001011111000010011
10110111101001011000011010111000
10111111111100110111001111000100
00100011110111000100011000100000
11010111100111110010010111111100
01100111110111111001010010110001
01101000011001000111111010001011
10100001000110010000011100001010
10001101001010010111011010011000
10100011100010000000001000001010
00100010011111011011010011100110
11100111001011101000010000010101
11101100110001110111111100011011
00101011111000011100011110111010
01100110111001000001111110000100
00111011010001101100011010100010
01100111111001111110101100001101
00100001010101101110010011111110
01110101111000100011011101000000
00101111010000001100011001000110
11100001010001001110111000001100
00011110001011010110011011000110
11101111111001001110000000001110
10111111111111010111011101000010
10101100011001101100010001111111
00101111011110010100011101101110
00000010001111001001100010000010
01010100001001001100011010000110
11101111101110011110101110001100
01111100110101100111001011111110
10100001011111100100010100110100
01011110110101000000011000111010
11100010110101001010100001011001
10000101111100111100011000001000
10100110001111010010001111110101
10000000111100101010000011111111
01010100110010101111001111100011
11110000010001101100000110011111
00011100010010110111101111110001
01001101110101100101000010011010
01011101011100100110100010110011
11001111110010010000011110001001
10100000000010111010001101111111
00100100100100000111101111111101
10011010100011011011001010101010
01010110101001111011101011001001
11100010111010101100101010000110
01010111011011000110011001000000
11100010001011010011000110010010
11011110000110000100001001110111
11100010001001001000001001011111
11011110001111110100010001110100
10101110101000011000000000001110
01000000101110001101011101101110
11010110110111001101011111100110
00010011110001000010111011000100
01010010011110000111101110010000
10110011010110010000101010010100
11110010111010001111101100000111
10011011001011011110011011010110
00101101101101000001110000110011
00010101011110000000011001100000
00011111000111001101101000100011
00110001011001000000011100100010
10011010000110001011101110000001
00110001000001000110101010010110
11101101111101110000111000110010
10010101011100000000011001100010
10011101110101100010100100111001
10100101101010010001111100101100
10011010100101001010101001101111
00100100101110011011101110110101
11000001001100011111100111101101
00000000010111100010111011010101
10010111000111100000010100111000
10001000101000010000001110001101
00101011101111000111001001001111
10100010001011001100101100011100
10010100001110111010010111111100
11010100111110111010011011110110
01110111110100101110001001000111
10001001011111111100011000101100
00011101000010000011101110011000
00110001001001001100011110001110
00110010001100111110000011010100
11010100111101101110110000110101
10101100111000110110001000011000
10110010100110010010111101101010
00011100101001010110011001000011
10111110101010010001101011011101
00001101101010000011101000111011
11101101000111110101011011000110
10001001111011010011011100111110
01001111100111101101001101000110
00001100101010011011110110101111
11011001000011111011010001010011
00001101101000001010100111111011
01100001010101101101001110100010
11011101010010111010000110100000
01010101100000111101001111000011
10000101011000110010100010111001
11000111100110111010000111011011
10001100001000110010110011111000
11100110101110111001101110100101
00010010000000011010110011100110
11010110001011111011101100010111
11000000100010011100100110100100
11011110000000101010101111011011
01000111101010110111001111100101
10101011110011000101110001000011
01100111011011001011011111101011
10011001000011110101011010010110
00101011110000011110011011111011
01000011110010000111111000010010
01010111000010110011001111110101
10101011100011000101101011000111
01111111111011000011001111101011
00101101010011110101111001010110
10111011010000010111011001111000
00101011100111001001110000100010
11010100110010100101101111000101
00111011000001010010110111010111
11011101010000000011101100111011
00111101010100111111101111000011
10010011110000111010111000111100
10101111111010001001110101110011
01010100000010110011011101111011
11011111000101101111011011010010
01001000000000100011011001110011
11011100110010110000011110001010
01001001110000111011011000000001
11011101100010001000111010001010
10010100010010101010101001101111
01110101010110101101111110100010
10110100000000101011011100001100
01110111000000001100101110100010
11011001010000111010001000001010
11111111000010011000111110001011
10000110010110111100100000011000
11100111111110100101101000100111
10001110100000100000100000001110
11110110101110010001101100100111
01001110100010111101100000001110
11110110001011011011101000000111
01110011110110101111011011100001
01001101100001101111000010100110
10010001110010010011001100111000
01001111100011111110100010011110
11110001011000100010010001111111
01001111100110110100110000101000
00111011100100110010000001011011
01101001110110111101111100000000
01010010100101001011101110000010
01000101000001111111100010000100
11010000100110101011101000011110
01011111100110101110101111100010
00111001010000110110000101010100
11001100100000100101100000000101
10111001010101111010100011011110
01000101011111111111110110010101
10101010100010000001110000011110
11010100101111101010100010100101
00010100001111010011100111010001
10010001110100101011000001010101
00101000001001010011101101010111
11000000111001101010010001011101
01101001111011011011101001001000
11000000101011001110010001010111
00110000000111000001111101000011
10111101010100101010110011110011
00111000000100000111111100010001
00111011100100010000110111111001
01111001110101111110011000100000
10100011001011011000110000001000
10010101100100101101111010011111
00111101011100110110010111100011
10010001100000101111111000000110
10111111000010010110011101100001
11110001110101101110001010101110
10111111001011010110011100000010
11001111010010101111101110001000
11010001001100001110101110010110
11000010010000111111101100000100
11000111000101000110100011110111
11000011010010100111100111000101
10010111010100010110100111101011
00011011010100101111101010011011
01010111111011001111101110010101
00011010000110011111101011101110
01000110101010000111100111110101
00010010000110000001100010100110
11010110100011011011101011010101
00011101100100100101101000011101
01010101010110001110111100011100
00011011100100100111100000110101
01010101010101000111111100010101
00011011100100100001100110100101
01001101010101001111110100110101
01101001111000110100011000111111
10101011111010000001010100101000
00001011100011011101010101100100
01100110011101101110010100100100
11010010000111001001100111100010
01100100001001111110100011010100
11101101111000110111011100100000
10101011110110100000010100101011
10000111010000110010010001111001
11101111111110111001100100101101
01010010000111011000101111101010
01000100001000111111110011010101
00001101100010110111111010001000
00101111100010101001110100101001
01000111000000110010011000000110
11101111110000101001010100001101
01010110000111001110101101100010
01001101011001110011010110000101
00100101111001011100010111111111
10101011010110010000011101101000
00101101010001011000010011101111
10101010011010001001011101000000
00000111010110000001010110000011
10111000010000001101011111000000
10100101111010000100011110111101
10101011010110010100011101101010
00111101110001000100010001101111
10101011011110010001011100101000
00001111110110000001011111000011
10111000010000001101111110000000
01110100101110011101011110101100
10111101010111010100011101101010
11111101111001010110011011001101
00101111111110110000011110101010
01111101110110010000010011001001
10110000010010011101111110101010
00101000101001000010100101110000
11000100111000110001100011001001
11100010101001011100110001111111
11000100111110110011000001111001
00100010001110001000010001100111
01010000101101100001001001110100
01110010011010001100010101100010
11001110010001101101001011011101
11110010101111001010101110100000
11011100010101101111101011011111
11100001011100101010010100011111
01000011111110100111001101100010
10111001101011000100101001111100
00101011010110000000001101101111
10111011101100001010101010000010
01100101001110111111101110101011
10111011001010100110001000000100
00110111000111000110001100100010
00110000101001000001111000110011
10111101000110011000011111101000
00011000001000000100111010110110
00111001010110010001011101001100
01011010011111001001101010101000
00110100101011111011011011010100
01010000001001000111111010000111
10111101010001001000011110110010
10111100001000000101111110011000
10111011010110010100011111010010
01111100011101001010101010000011
00110101000001110100011011010010
10111101010111000110010011111011
00110111111110010110111110100010
10001101001111001001100011001110
00110001000011100110011111000010
11101111100111001010000011001011
00110101000001111110101011010011
01011011110000101100100011101111
01000010111111110101001100111101
00011010101111100101111111110001
11010010110001100001001010111101
11010000110001100101011011100011
11000010011000011001001100111101
00010001000010001101000111100100
00001100010101100001000110011101
00010000000111000101101111100001
01001100110001101001100011111101
11111000010011100000111110110000
01001000111011000011101110111101
00010010101011010101110111100101
00101100010100100001000101011101
00110000101111001001110111110101
01011100101110110001000111011101
00111000011001010000010010110000
01011010101010000011000110011101
00011101000010000001111110110001
11111011100010011000010010011010
00011101011000000001010101000111
01111011010011101101010000000000
11010101111110101111100110111100
11110011010111110100010010100010
00010010100001001001111000000010
11111111000001111010111010010100
11101101111010111100100000111000
01001000111111110001110111001000
01100010110111011000110001000110
11010100001001111101110011000100
11100010000000001000001001000001
10000100110100011101111101101100
00100010100010111000001001100110
11001100000001101000100011010100
11100011010100101100000001001101
11000101011100101101110001010100
