01100110000100001111010110111111
11001011000101101101001010100101
01111001001001110011011011011101
00011011010110100010011000010000
11101101000010001001011011000010
11101010010100111011010001001100
01110011010001001111110110111010
01101011000011000100001011010101
01101001000000000000010010011111
10011000010110110111011010100000
11111101101010000001010000001010
00111010000101111110110001001101
01111011111101011111111110111001
01000011000111010000001011000010
01101101011010010100011010111001
10010000010110111011001010100001
01111001111000010000100000001010
00011110010110100010011001000100
11111011001011111111010010001100
00110001010100101000101010010100
01110011011011010000011110001100
01110000010100101000001010001110
11110101111010110001011001001100
00100010100100101000101100010110
11100111011001010101101110011000
00010010110100010001110010011011
11100111001010010100011110001000
00110000000110101001110110001111
11101111011010010001101110001100
00110010010100100000100110010111
10101111011010010101100110001000
10101101001110111001110110011011
11101111011010011101001000001000
10101010010110000000111101010010
11110111011001011010010011101000
11110001110110000001110101010010
00110111110111001111101100111110
11001011111100001110101000010100
00101110010011001011100001011110
11001011111111101110101000010100
00111110010011001011101001101110
10010111111111011111110100010101
10101111000110000111101100011110
10100011100110011111111100010000
00101011000010000111101001111010
10101010100110011111111000000001
10101110010010001111100001111010
11111011111111110111111101010101
01101101100101001110100000110111
11101100010100011111001100100010
01111001100011001110100000111010
11001000010100001110011000100000
10111110000011010110100001111010
11011010111101011111010000100000
11111101111111010000000001001001
10110100110100011011100111001110
01111011101110001111000100001000
11001000000111101100110101001111
01100000000000101011000010111101
01001011010111110100101110110001
11101101001010010100000001001010
10110100110100111011110110001111
00110010110101001111111100101110
01100011000101101100111101000111
00100010001001000010000010111101
01001010010110110111101010110000
10111101110111110100101000001000
00111100101110111010110001011101
01111010100101101111101000101100
01110111010111010000111101101010
01100110001000001010001110011111
00100110000110110001001010110001
00011111100110111011000100001011
10100101000010111110101100000110
10110010110001100011111110111010
01101011111001000100111001110110
10000100000011001000010011010010
11010010110000100111100011111001
01000001100101001110010010111111
01001010111000000111101001011000
10001101000010110000001001000011
10010100101010111111110000001001
10010110110010100111111100001010
01101101000001101100110111010110
10000100000011100100110111101010
00010100101001111111110101000001
10000000010110101110110010111110
11111001000000110101101011110101
11011010010100100000001010001111
01000101011010000110111000100000
10001101100100101111100000001111
11110101001010011110101010110110
10010100110011100111111110001011
00101011101010000110100010110110
10000100000010100110011110000010
01110010101000000110100010111010
11000001000101101110111110101111
11110101011000111111101010111111
10000111000110100001101111000011
10110100001010111110101010101011
10010111010010100110110110001010
10110100000000111110100010100110
11000111000011100110111010011110
10010111010000110111100110110010
10010101000110100101111010111010
11010000000010111110100110100111
10000111010110100100110110110011
11010001000000011100101010000111
10100110111010010101100110110000
00000011110101000000011000010101
10100000011110001100001101110001
11110010100011111001000010101001
01010110111101110010100100100101
00110101010111011000000000110000
11001110001110110000000101000001
10110101000010111000000100001101
00111010111111011111111110110000
01101011000001001000011111010100
00000000101101001100010111110101
01001011010101010001001010100000
00011010011100011111001101110101
11001001000000111100011101110101
01011000101101010001010101000001
00000011001111011000001100100010
10100110101011010111110111000001
00101000011111001001000110010111
00110110011111001101100100010000
10011111111110011100110000010111
10100110011001001101000101111000
10001001110111011100110000010101
10100110011011000101001111111000
01001011110100010101110010010101
00111110101101001000001000000011
11110110101110010111110111111000
00101110000101001111000000001111
11110110101110010111110101101001
00101010011001001111000001101001
01110110100100011111110110110001
10110110101101001100010010010110
01100111111101000110111111000000
10111000101101001110010010011110
11100111111101101110110111101000
10111000100101001110011010001110
01100101111101101010111111110000
11011111011010110110001000111000
11100101010000111110001001001101
11011101001010110000110100010100
01001111010001100001001011001010
11010101000000110100010100100100
00101110010001100001001011101010
11001111011010110001101000100001
00010111101011010000001000000111
11011101011100111101110110110001
00001110100001011000011010100111
01000111011000110100110110010100
00001110010011010001001010100110
01001101001000111001100000100101
00011101101011110010000100010111
01010111011000111101111101110001
00001100010001011000000010000111
01000111001100110001110110010001
00001100010010011000001000100110
11011000110111101000000001001010
01101101110100000111110111001101
01111000000111111011001000111110
11100111100011000111111111010001
01111111000111110011001001001111
01110111000110010111111110010000
10011101100110111111000000101010
01101100010110001111110111101011
00001110100001101111101010111110
11101111110010000101111111010010
01001101000011101010000011111111
01010110111100110111111010111000
00010000110101111100010010101100
01101110110000001000101001100010
00000100101100110010000010011101
11100110110110010011111010100010
00001100000011100110001110111110
01101110111010110011111111110010
00111111111101010001101001001001
00111101011100101110000110001010
01100010110111001111000110111110
01101011000100001100001001100111
01111101000000001010000011010111
10010010010110110111000110110000
11100110000110000000010001001111
10010000011110111111000100101000
10111111111000001111101000101010
00101011011111000110010101001110
00100010000000001100000010111111
11011010000100110110001010110001
01100101000010000100110011111110
01001010000100111101001000111001
11111110001101010011000000001001
00010011010111000110110100001010
01100110010000001110111110111110
01101110000101010110001101110101
01100000101011010110010110110101
01001001011100000000001011110110
01110001000100011100011110111110
11011010011100100011101011100110
11110001100001011100010000000110
11011010011110100001111001001110
01001001001010110010011110111001
00110010000110110001000111100011
01101001000010010000011110011001
11011000000110110001000011100011
01111001100101011111011000101110
11111010000100100011001011101110
01000011010100101011011100111001
01111001000110100100000001110101
01000001000101111010011110011101
00011001000110100010100001011111
01111001100101011000010000011110
10111000000100000011000001011111
01001011011011110010011101111001
10011100100010011000001011011111
01000001001110111011010110001001
00011100100110101000100101010111
01010001001110110010011111001011
00011100100110111000100101110011
11001000010010111011101101101000
10001101110101001000100001011111
11001000010110110011001001001100
00011101111111101000100001011111
11011000110110111011000110001101
00011101101111100100100101010111
11001010010010100011000100101000
00001101111111001000101011011110
11001000010010100011100000001000
00001111111110101001101011011111
10000000010010110011001100001101
00010111101111101000101111111001
11011010001010110000010010110001
00001010000010111100001010101001
10010110001010100000101010010110
10001010111001110111011000011000
10011110111010110000101010000000
00111010101011111011011000011010
00001001001011110000011010010000
00001000100000100001010010111000
10011111001010110100001010010101
00111000100010111001011010101001
10010111111100111101101010110000
10111000101011101011111111001111
10001111001010110100100111110000
00111100100010001001010010111001
00001101001100111101100110010000
10101000010010100001010010110101
01011101101100111001000100110100
11111100011010100001011000000110
10010010110001100111110101001010
10011010011101001000110001011110
11000010110101111111111110111110
01000011111001000001100001011111
11000101000001101011110111001110
10010000011010100001100100011011
11010100111011110110100111001110
10010001011111001000111000010110
11010110111010111111111110101000
01101011111001001000111000011110
11000110110011101111110110111110
01001011111011100001111000110111
11010111011010010100110110101010
11010000011100011000111000000010
11011111111011110111101110001000
01110011101110011000111100001110
11010111010011110111101111101010
00101010111011010001111101110010
01100111111110011101010000001100
00010001010111101000101100000100
01110111111110010101110000110000
01010001010101000000111101001110
01100101011110011100010001110001
11110001000111100001100101000010
01100111001110011000001000111001
11010001000111111011111100101011
01101101000110010010001000111001
10110100000111111001110101001011
01111100011110011011110000111101
11110001000111110000011101110111
01101001110110111111011100111110
11101101010101000001001111110100
01101001101101011010011000111101
11010001010101100011001011010001
01101001111100110011011001110101
11010100010111000011011100000001
11011001101100011100011111000100
01101111001000001000001110101010
11001100101110011001010111000100
00110110001010000001000110100001
10000110101100001001110111000001
00101111001010000001010110110101
10111111111000010101010100001001
01100111000000101110001110001110
10111110100110001001111011111100
01100011000010100010001010101101
10100110011010010001111011110101
01110011011010010011010110110001
11110111111110011001011100101100
01110101000010101100001010101001
11110111111110010011111000111000
01110001010110100100111100000100
01100110000110000100111010111010
11100001010111110111111100111101
01101000000000111001000001011010
10101000110100010001111010100001
01001111000001111010001001001010
00101100111111000001110000010111
01000110011111111010100101101000
00010100111011000001110001011011
01001110110000111111100100001110
10111110110000100000111100010110
00010100110100111111101101101100
00111111111011000000110101010110
00000100010100111111100101101111
01110111111011010000110101110010
10011110110100111111100100001110
10111111111101101000111101000110
01010100010100111111100100101011
11110110100111101001110101000010
00010100010101111101100100101111
01110111101011111000110101100010
01011101011011011000101010111101
10011101111110110001001010110110
01000101001010011011100110101100
00011000110111100001001011100110
11000001010110011010000100001100
00011100011111101001001011101011
11000111011001011101100110110000
10011101111100010000001010110010
01000101011001011101101110011000
00001011111110000001001011000110
01010001111010011100101110101000
00001110110110000001001011100011
11011010000001011100101111111001
01011111101000010000000010111010
11000111011001011100100110110001
01001111111110010001000011010110
01010001111011011101100110101001
00001010110100010001001010000110
01101010101101001101111010010100
00001011111000100100001011110000
10101110111000100000111001000101
00010010111001001111001000011000
10001110110110110100110001000110
10110110011011101110010101001101
11001110001010100001010011010110
00010011111010000101001110011010
11001100000010100000101001000010
10110100001011011111110100001001
01111110010110101110110000100110
11111101000011111110001111001101
11101111010110101010011001010011
11100100000010110101001100101010
11011001110110101110110000100010
11110001000001101110011101001101
01110010111111001111011110110101
01000001000001000100001111100000
01000000100000110110101111011011
10001001000010000111111000100110
11000010000010100011000111001011
00101000011011110111111001011111
01110000000011100011011110001011
01010011001111110100110101010111
01101000000010101010010010011110
10011000011111101111111001010100
11101000000011100011010000001111
00010010011111110111111001010111
11110000010011000011010010101011
01110011001101110110110100111011
00101000000111100010011010111110
10011010011111101101111001100000
10100000000011100010011000101111
01010010011101110111111001110000
11001000011001110011000000101011
11110011101101110101110110111011
01011010110100001111111000101111
01001101001101000100101001110110
10010001011000110001001111011111
00000011110110000111101000100010
10101101001010010100000101001010
11111100100101111101110111001111
00100000001001010000001111011111
00010010111110000111111000101010
10101101000110010110000011001010
10110100000110111111100111001111
01110010110101001111111110101110
01111111101101000110101101010110
10001101000110110100000100001010
10110100100110111011100101101001
00110010110101001111110010101110
01011111111001000100101001010110
10010000011001100000000111010101
00010010111110000101101000001000
10001101000011100110011000110010
11101110100001011100111011101101
10011010110001110011010010100101
10010101010010000010111111010000
11000000001110110100010001000011
11100000000000111011010010001101
00011010110001110011101000100100
00101011001001000000111101010100
10001100001110110000000001001001
10110100110010110011010110101000
01001011101010111100110000100100
01101010100000011000011101010111
00011011001101111011011001000101
10010001111000000001010110001010
11001101000110100100011101010011
10100100011001111011110110101101
01010010111001111111100010110100
01000111011001000000111111010000
10101010110011000111100001101010
10001000111101011110011111001010
10111011010011001001101001101010
10000001101111101011011101011110
11101011000011001111100001111010
10001000111101111011011001001110
00101010101001001100100010110010
10101010101101001010011111001010
01111001101000011000101110101010
10001000101100101111011011001110
01101011000011011100100010101110
10001000111100001011011001000110
00101001111001011100100110111000
10001010101110010000011000001010
00111000001001011100100110010010
10001010111100010000011000000110
00101010000001011100101100101110
10001110111100001100011001000010
10001110001100101100111011010111
00110110111001110110011000111000
10001110101001100000110101000010
00110111101000011100010110011010
10001100010100101100110001110010
10111100110010011101101110011101
00000110010000100011110111010101
00010110101001111111011100110010
10001100011100100000101001000000
00010101111010011110110100001001
10011101000100100110110001110011
01011101110010010100001100101001
10010111010110100000100101010011
01010101011011100101110100001101
10011111100110100010111101100110
11011101010011101101111101101101
00010111110100101111110011100111
01000101011011001110001001100101
00000001111010100010010100110100
01011101001011001010001001010011
00000101111100100000010100110101
00011100111011111011001011100011
11010101110100101110011100110100
00011111011011111000011001110011
00001101111110100000101101100001
01011101001011001000001011100101
00000101111110101000110100110101
00001100001011101100001011100110
01000101111100101001001110000101
00011111011011101000001011101011
10000001110010100000011101110001
00011101001001001110001011111111
00010001111111101011100100010101
00001101011011101001001011100011
00010001100110101011000100010101
00011100011011101101001011101110
00111010011101001001100011001111
00011011001111110111100110111011
00101011011011000011101011111011
10010011000100010111010010011101
00111001011010000011001001001011
10110001000101111111000000001101
00111010001001001101101011111111
11000011011101110111010010111000
00101010010001001010100001111110
11000011100101000111010010011001
00101000010011001100101011111011
11001011001101010111010011001001
00110100111001001101100011110010
10001010100100011111010010110000
00111100001001001100101011110010
10001011100100010110011010100000
00101000001001000110101010110000
10001011100101010110011010100001
10000101110001100110010111111110
11110000111000010111111011011000
11010001000111101010011010101111
11110100011010111111100011101000
00010011100001000110000110101110
00110011001010001100011011101000
11010110110111100110010110101010
01110100011000111100110101110010
10010110110001100110011110101110
01101011111000001100001011110110
10000110101001100100010110110101
01000010111000001100001010110000
10010110111110100100010011100111
11010011100000111100111000010011
10010111101010110101101111000001
00110001101010011100100100110011
10000111001110100100110110010010
10100010100010111100101110100011
00100011001001011111111111011110
00000011001111110100111100110111
11101111011010010100010001010001
01110000000101011110010010001101
01111100011111000100111001110010
11001001010001011000000100001100
01101111001000011011110000011101
10010011000111111111011100101011
11111111010110000010110001100011
10010000000101111110110100011101
01110010111110000111010001111001
11010001010101011110011000011100
11101111000000001010010001111110
11010010011101100111010000001001
11110111010001000010111000111011
11010001010101111110010100001101
01111111111110010100001001110001
11010001000101011110011100001101
01011000000001111111000101011110
10010111101000110110100101010110
11010000000100111110000100001010
11101111111100101000100100010110
11011000101101110111100100001100
00000111111110000000101110010010
01001111000000110111100100101111
10110100101110111000100100000010
11011101010100110111101100001000
10110110101100101000100101010111
11000111001000111101100100011010
11101110110110000001101110110010
01001111000101110010010000101111
11010100111101110011110101001011
11011111110101010010001000101110
11110100101111101101110101001111
01011111000001110011101000101010
11010101101111111101110100001011
01010000110001101101110110110110
01001011011001001110101001010100
11010000110001100100111111110110
01001011011001001110011001010100
10010010110001101100011001110111
01000011001000000010001111010100
01001111000010110111100101010011
01110010000010111001001110101011
01001101000110110100101101000001
10110010000010110011000110101011
11001001000110101101100001010011
11111110000010010011000110101011
01010001100111111010011010110110
11100001010000101100001101011100
01010001110101111100010010010111
11000001010000101000001101011100
01010001110101101000011001010111
11001001010000001101001001010100
01100010000110110010010101111010
10111010000101111111110111011101
11001000000111110011010001001111
10110000000100110011110100011011
11110100101111010011010001001001
00110000001110000001110100011111
11110110111011100011010000001111
00110011011101100001111001011100
11110010010010100011011010101110
01110011001101000101110101011101
11100100000111000000011001111111
01110011001111100011110101011001
11100001011010110010010010001100
01010010000111010001111010000111
11110111111010110001011010001011
00110010000111000001111111001011
10100110010010110011011010101011
01111011000111100101111111011101
01110011110111010010001011101000
01010001111111000000110101010100
01110011000111011110000011101000
01000001110111101001110101010101
00110001101101010110000111101000
01010101111100100000100101010110
01110000111111000010011011001101
11010001110110111010110101010110
11110010111011010010001011101000
01010011101101011010110101011110
00101000100011011100010010101101
01011011101101100010100101110000
01101000111011011010011011101001
01011000010111011110101011111101
11111000101111010010000000001001
00010110001110111010100011111000
00101000111011001101001011001011
00111110101101110010100011110001
00000000100101001101100110000101
00010011101011011001001010110001
00011001101101000111101110010101
10010000111010111000001010110010
10001101011110010110100011010000
10010100111011011010011110100010
00000010010101101111101110110101
01101011101001000001001011110000
00000101001001110110101110010101
10011000110010110001001010110000
11001101110100010001100101000100
10111100101010111000010100000111
00000010111001011011000110010101
10000111101010010001000111110000
00000000001001011110011111010001
10001100111100101001000110110111
00000101010111011011111100100100
10010000110010101010001100001110
01000101010000011001111110010011
10010001000000100101001010100011
11101101100100010101111100011011
11011000001110001010001010001111
11110101110110011111111110101011
11100010001010000010001010001110
01000001000001011111100100111010
10011001011000100101001010010011
01100111000001010101111110111010
10001000010110010111000010011011
01010101111001011111110111101010
11001000000100001001001010010110
01000011000001011100100101110010
11010001111000000111100100010011
11010010000001010100110111111010
10011000111100010011000010010010
11010010100001010100110111111110
11001000010000010110000000010010
00000000110111110010000111010011
11010000101001110001110011110011
01010001110001110110111110110011
11010001100001010101111111111110
01000001000110111100011100011110
11010000010000111010100001101010
01000100100101111011010111100111
11010000111011100001100011110010
01001001000101111010001111000111
10010100011011010001100110111011
01001001000101111011000100001000
10011000000000001000100101000011
00010000010101100011111111000101
10000010111011010000100101010110
00000000110001100110011111110110
10001011111001000001100011110110
01000001010101111100010111000110
10000001111000000000100011011110
00001100111000011001111100100001
00011010100111011000000000000011
00101100111100011101111111110001
00001010101111011000001000110111
00101100111100011001101101010101
00001010100011011001010001111111
00000100111100011001110110100101
00011011101011010000000010110011
01011100111101011101110101000001
00001010111011001000000000010110
01001100101100011101100101000101
00001110111011011001010001101110
01000100110000011001011101010001
01011111001001000001010010010111
01001100101100011001111101000101
00011100111011001001000000011110
01100100101101001001111101000001
00101010111011001000010001000110
01011010111001011100011111000000
01101001000001000000001011011100
01001000001100111000010111010100
01101000000101101001001001001001
01100110100101101001010011000111
00101101001110100101000101010001
11011010111010010100011001000000
00100001111010001000001111001111
10011010100010111011010010101010
01100111011011000000001011011101
00001110100011100011011110101110
01110111011111100111001111110000
11010010111010111100111100001010
11101100010000001100001010001100
10010110111110110011110010001100
00100111001011000000011100010110
10000110010010110001110110100100
00100111111110110001111110110011
11110010100011011000001111111000
01101011110110000000111011010110
01101010000001111000001011001100
11101100111100010001010011110000
11101100101011000001001011001101
00101110111110000011110000011100
10010010111110110000001110001001
01100111100110011000110000010010
10111010011001111111001010011100
01101110111110000011111011110110
10100100001011110000011010011100
00111110111100101011110000011001
00100000111101011101010010011001
10001010110100001000101000100010
10100100011001010001001010001000
00101110110110011000111000100000
10100100010110111000101010001110
01101110100110111011110011001101
10101100101010010001110100000001
00110001001010011000000110100111
11110011111010111101111010110000
00101001001100001000011100010111
11100001011000111101110111010110
01110011000110011011111000011010
01100011011001011100010011010100
11000001010000001011011010101000
01101101001110110000011001000001
10110000000110111011010100101001
11111111111110110111111000001001
10110100000110110010010100110111
01111011100110110011011100101010
11101001010110111000011111010100
01110011110001111110011010111100
01001001010100000100011001010100
01100001100001011000011010110111
11001001011101010011010001011100
00000001100100100010001010001111
10101110010010111111110010100010
10110101100110000011110011001111
00111110000110111111110010100110
10111100110110000011111001011010
01100011001111001111110000001110
00000001100101001111111110111111
01011010000011111011101010100010
11100101100101000100011010010101
01011010010110111011111000101010
10110101110111011110110001001000
01111010000111101111110100001110
00000101100101100100011110111101
01011000110010000000100010110000
11100101100101110000011010010100
01011000010000000001100010111111
11110100100100001000010000011110
01110000000111001110111100101110
10010100001011110100111010100100
01011000111111110001111000101011
10010111001011100100110110100000
01011010011001111001110000101001
10010111011011100100010010100100
01011011011001111001111000101111
00010000001011101100010010110100
01001000010001000001011010100010
00000001001001111100010111110100
01011000010001010001010011100000
00010001011011111100010011100100
01001000000001011001011010101001
00010000001001111100011011110000
01001010000000100001010011100010
00000001001111111100011011110000
01011001010001110001010011100000
01011001001111111100010011110100
01111000000000111001010001101000
10101111001110000101101000011101
11010111111101100100001110110000
10111101001110110000001001000100
00010100110100111010100100101000
11111110111110010011100001001000
00110111010111101001101101011010
10101111001010010001000100011100
01010001110101101001101111100010
01101101000110011100000000111100
01110100001110101011101110101001
11111011000110010011000000001100
01110100000111111010001101001010
01101101101110110101001100011000
10100100110100101000000111000011
01100101101100011001011100001100
01010110010100000001001111010001
01100001010100011011010000111100
11000000010110100011001111011101
00111111001110001101001011000011
00110100100011111110001100110111
10110111111010000001101000100001
00100111101110011100011100000101
10110010011010000111101010110010
01101011111101111100011011110100
01101101000101001111001000010111
10101101010001110111000001111001
00101001000100001000000000000111
10110100000010110111001100100001
10111001011111010001100001000001
00111100000010011110001101001000
00110110110001000111011101000110
00001111111001000111010111011100
00100010110101001110011011110110
01001101111001000111000011011100
00110000100101001110010001100110
11001101111100101111000010111000
01100001001011010100001110010000
10001000110111010000011010100010
10101101111110010100101100010000
00011100010110011000111100100100
00110111111110010101101000101010
00011110110110101000111101100110
01101001111000110000010000010101
10010100010111011000011110100001
01100011111110010100111000111110
10011000010101001000111101100110
01110001111110011010010000111010
11010001010111101000110101001110
01101011110110011010010001011110
10011000110111111010001011111101
01110011111110010011011001101100
10010100110111001000000101001111
01110011101110011011010001111010
11010000000111101001000101001111
11101100000011000011110000111111
11010010001001110111010100111001
10111101011110010000100001001111
10010000001101110011110100101011
10111011111101011111111100111010
11110010000001001000101101001110
10101100001011100110110111111001
01010011011001010001010011110011
01101101010101101100011111110101
11011000001001010001000010101001
01011001101101111100110100010100
10010000010001001000001011000110
01000111011001110110100101010001
10010001011000010011010010110001
11000011111001110110110111010001
10011001100000000000000010100111
00000000001100111100110100000001
10001001010001001000000011001010
10000111011110110000100101110011
11010100000000111100011110100001
10011011111110100100110011010010
11110001000010001110010111101000
10100011000011101110010011111110
11000000010010001101011011100001
01001111011101110100000111110110
11010000010000011100011110100101
01011011101110100100000101010010
10000001010000001110001101001100
01100011100111101110010010110110
11101000010010101100011001000101
00011001011111100110100111110001
10010000110000011001000111010001
00011001101111100110001111000010
11001000010000011110001101001111
01001011101101111111001100000100
10001000011010101100001001010110
10100110111110001111110001011000
01101011010100001101000011011110
01100110000001001101010010011101
10001010100010100111001010111001
01101101000111000001010000001101
00010100011110110111101110110001
10111110111111010111101001001001
00110100011110011110001111001110
00110010010000000111110010110010
01101011010001000111011011001100
00100010000011001110010010111110
11010001010110100111000010111001
01111101100101101000010001100101
11010000010110011110010000101000
10111110101010000001101001001001
00100101000010001110111101000010
00100010010000000110111010111110
00101111100001010111001011110001
00010011111001001010101110111101
00000001001101010010101001010100
10100011111001010101001111011111
00000111111110001111101100111010
10100111011010110011001100011010
00110110100111111101100100001111
00001101001110110101000101001011
11110110100110111111100100101011
00001101000110011111100000101010
10111100000110111011110101100011
01011010010101011011101110101100
01111101001100100111100111110010
01101001100111001010101010001110
11101100111101111000000001110100
00010000111001001011111110101101
01001011111101000000101011010110
10010000101001000000010111001100
01000011111101000100100011001100
11011001010011000110011010101011
01110010001100100110001111001011
11010001100011001010011010100111
01110010001000101110001111101000
01011011100010001010010010010110
11101010000100101111001111001000
01001011000010101010010011110011
01110001000000111110000111011101
01001011101010111010010010010111
01100000000000111110001011011101
01011011101010101011000010011111
00101110000010001111001010011101
01001011010010100011100011010000
10001001010010111110001000011101
01001011110010100011101011010100
10001010111010010110001000010101
01001111111010100011101011010000
10101010111010010110001000011101
11011001010010100111001010100101
01110111000010110000001111110000
11011001110101101100000110110101
11111110000000100000001011100000
00001001110111101100001010010100
01101111000010001101001011100000
01011001010101101110010011110101
11100001000000110100000011010100
01011001101101111100011111110101
11001000010000001100000011100100
01011001101101101100010010010110
10001000010000001110001011100100
01011010010000111110010011000001
11110001000000010111000101011101
01001011101000111010011111010000
10100100100000011110000111011101
01000011100000101010010011010110
10101000010010101101001011010101
01010111100011100001110011110101
01001011000010001110000001001011
01100101000000100011110011110101
01011010000011110111011000100001
01010101110001100011011110010001
01001000000011110110000001101111
11010100110111100011011010111001
01011011010010011111001010101011
01000101010010101011110111110011
01001011010011010111011000100011
01000100100011101010010111000111
00011010010011010110000010101101
01010100010110100011010111100011
00011110010001010111011000101010
00000100000010100011110111010011
00011011010011011111110000110011
00010100110001100111111110000011
00011011011001010100001000110110
01001110000000111011001000111110
11110101100011010111111100010001
01001111010100111001000001110110
11101101110000000111100001010101
01000101000100111001101001111110
11111100111010111111110001011001
01001111100000111010000001110110
11000101110010110110110101010110
01011111101100101011001101100110
10001111111010101100111101010111
00010110110001101011100101111110
11001111111000001100111001010110
01010100100000110010001001110110
00000100111011110110111101010011
10011110101111110011101001100110
00001110111011101110111101000110
10011110111001110001100001101111
01001111111011011100111100010010
10100011100011101111010100110110
01101010000000001100111001000111
10011010010110110000010001000001
10110101010011110011110100011000
01000010100011101100010100101110
11100010100000011110011111001101
01000011110011111111111100100100
01101011001001000000111001010110
10011101000110111010011001000001
10110100010111111011110110101000
01000011110001011111111110111110
01101111101000000100111011010101
01011010011111111011010100100100
10000101111011000000111101000100
11001101000110100010011001010011
11100100011010111111110110101000
11001011110001111111000000110110
01000011101001000100110101010001
11101011111111001111100001001000
01101110000110001101001011001110
00100100000110000101000010011101
11011010000100111111001000100001
10111101111001000010100001100001
00111001111110010111000111011110
11111011111101010010100001001000
00111111011111001010100111011110
00100010010010001101101010111010
01001010000101011110001001110101
01111100000110010010000001001101
10010101111110110011000000011000
11111100010100100000000001001111
00010001111110101111000010001000
00100111011000001111101110111010
01100111100011010100001101011111
00110000000110000100011001011111
11111000000100111111001010101000
10100000011010010100001111010000
11110010100101001000100010001101
01010001111110011100100100101000
01110110100110100001000111000101
00110010101101011110000111101101
01101100010110000001010011100010
10111011111110011101100100101000
10110101000110011000100110000111
00110011111100011101101100101101
01101111100110001000001111010110
00111000101101010100010110001101
01101110110110010000001010100010
01100000111100011111010100101101
11001011111101000000001001110010
00101001101100011001100100001101
01001111111110111000000010100000
00101101101100010000001010001101
00101110100110111000000100100010
10101110110111000111110101010110
10101010111011000100111000001110
10101110010111000111101001101010
11000011101111000111111101011101
00100110010011000111101111111011
11010001101111011110110101010111
10111010100111001110110010001110
10101010011011001100011001101000
10110010100011000010110011101110
11000011011111000111011001111000
10110010110011000010111001101011
11000011011111000110011101111001
10111000101110001110010110000110
10101000010001001100001011100000
10111000100111000110011010100111
01101010011101101101011011101000
10111000110011000110011011100111
11110011001001010100011011110010
00000011100001101010000111011111
10011111111010010111101000110001
10001111100000110111101101010010
10001101110010111110100111010111
00000001010110111110000100111110
11011101110000111110101001011101
00000011010000101110100101110010
10001110101010001111100010111011
00001101000100101011000001011110
10011100110010111111100000001011
00011011110100101011101000101010
11001101100001111110111101010110
01011101010111111011101101111011
11111100111110100001100101000110
10010001010101101110001100101110
11101101110001100111101101111010
01011001000101101010000001101111
11010100000010110111100000101010
10110111111011010001000110011101
01010111111101100000101010110000
10100111011011010001100111011100
01010010111101000000111010101111
00110101011110010101001100101000
01010111100101110000101110001111
10100111011010010100101110011001
00110011110110010001111010100011
00101111011110010100100110011000
11110100100110011001100111101011
00110001011100011111101000101000
01110100100100110001100111101011
01101101001000011101001101011000
10111100101110010001110000001011
01101000110100011111001000101100
11101101111110000001110101011110
01110000101101011111001000101101
11101101111100000001100001110000
11110111110011000110100101101010
01110011011101000100000111110110
11110111010111010100111101101111
11110011011100000000100100001010
01100001110111010100111110101010
11110001000100000000101110000011
11110111111011010111100101101011
01110011010100000100110111000110
10110011010010010111111100111010
11100011000100001010111111100111
01110001110100011100110111111011
11000001000100000000000111000001
11111111011110000100000000001011
10010101010100111100001100001011
01110011111100011111100100111011
11100001000100011100001101100111
01000011111000011100101110110001
11000001010110010000001000100001
00110010110111011111101000101111
11110101000101111100100101110110
00010011110001100011010110011111
01000011111100000110101010100010
10100101000011001100001111001011
10110010100110111111110111101011
00110010011001110011111110111101
00000011111110000110101001010000
10100101000010010000001011011010
10010100100110111111110111001011
00111011010110001110100101101010
11101100001111111110110101010101
10101101000110100100000111011010
10010100100110111111100011101001
01101001100111001110100000101010
11101100000100101100100001010101
00010010111101001011001010101101
01011011111101000100101000010010
11100101011001011001011010101001
01110011011100000001000001011011
01010101001101011001010110101001
10110000000100110001000100001011
01001000111101010011111100000001
01101010001001000000000011000110
11111110011010110001011111000001
01110011011111000000010111011101
01100110111000010101110110110001
01110011010101000000001010110001
01000100101001110000010110000001
00010000001011000000000010101010
10110110111010000101010011100001
01100011010100111000011000001101
00100110111000010101111110110001
01100011010111011000010100110101
00000110001000011001110111110001
00111001010011011001010000100011
00110111111011000101100111110100
10010010111110001100000100010111
00110011111001001111110111110110
01001001111101001100001011010100
00110001110001001100010110111110
11001001110101001010001010100100
00101001001110010001000000000011
01110110100110110111101100100011
10101111001110010001100001000011
00110100100110110101000100100011
10101111011010000011101000011001
00110110100110011110000110000011
00110110111000001111010010010110
11001111111101000110010001010110
00100001110100001110010010110110
11001101111101101111000001111100
00100101100100001000000000100100
11010101111101101111000101101000
10110001111001000110000011110110
01001011111101101100010011011100
00110111111001001100000110110110
11001101111101101110001011010100
00110011111000000100010110111100
11000001111101101110001000000101
10001100001110000011101011000011
00111110101011010110010110101001
10101100001111000011100111000001
00110110101010010011010110101011
10101100001110000011101011001011
00110110101110000100000100101011
00110110111001001110010110010110
00001001111101000110011011010100
10110110111001001111011111000110
01001111111101000110011011010100
10110110111001001110111111000110
01001111111001000100011010010100
