01101001111011111110010011110100
01011110101000010100000101110001
01101000101011110100001111110100
00011110111111011100000001110011
01001000111001110000101100010110
00111101101111001010010101101001
01000011111001110011000110110000
01011110101101010111110110011110
01100000111001100100000110110100
01010110101101010100101101011011
01101000111111000100111101110100
00010110111111111101111101011001
00000110001001110101111011000100
01111111110111011001100001100011
00000111111101010001000010110000
01010110011001110001111101011011
01010101001101011000110110110100
01010110000011010101110111000011
11111000101110010111110101001001
00100001100101100111000010111111
11011010100100000111101101000011
00100001110011100001000111110111
11111100100110000110100101001111
00100111000100000111000111011111
10001110000100000101100001000001
00100001111111101000000001110011
10001100100100000111101101000011
00100000100110100000000011111010
10111100110100100110100001000011
10100111001100000011000111011110
10111011010110010011100011110101
01100001110110101000100010010011
00110101000100000111000011000111
10100001100100100000000011011010
11101011010100100101000101000110
10100110100100010011000001011011
00110111001000000001000010010100
01010010010010011000100000011011
00110101101101000101010010111101
11011111010000011011000000011110
00100110101101101101010010111100
00011010010010011101101000011100
01101100101100100100011010010100
11011011010000010010000100001110
00110100101101000100011010111101
10011011010100011010000000001111
01110100101101001101010010111101
00111101010000011110001000001111
01101100101101100100101011110000
10011101110101010110000000001110
00101100101101100100111010111111
11011111010100011110001101001111
01111100101101100100010010111111
00011101010000010111001000101111
10101100110000011010111010011011
00110100111011001110001111100001
11101100110000010110111001011111
00111101001001001110011111001100
01000100110001100110111010011111
10101101011011001100011110001100
01101100110000011110101011101011
00111100001001000110011111001000
01111000110000111100101001101111
00111100101001000111011111001100
01101100110001101110111101001011
00101100101001001100011111101101
11101000010001101100101011001010
00101100101010010110011111011100
01111000010000101100111101001010
00101100101101000111010111011101
01101000110100110110101101001010
00101000101111100010000111111001
00100011011000111010110010011110
01011110001000010001110100010010
00100001001100111001011010011110
01011110111001011101110100010001
00110011011110111000011111111100
11011110110000010101111101010001
01100110001001101000101010011100
01011110001001011111110000010100
00000010001000100001011010111100
11011110011001111111111100001000
00000110011000001000101110111100
11010110011011110111111100000110
00101010001101100100011101011100
00111100101000111010000001110101
00101110001001010001111101011100
01111010111111111010101001100011
00001110011001000010101100010000
00111010010111111110101100101011
11110110110001101011011100001111
00011110010000011001110111010000
11110011100011101010100110011111
00011110000100010011110010010000
11100011000110111001011110001100
00000110110100010000110010010001
11000110010101101001111101001101
00000100111111101010010010101111
11010110100101101001111000001001
00000100100111101011010010110101
11000100010000111001010100001001
00000000010001100000010010010101
00000110010101010100011100111101
00101001001111101000100010110100
11001110110001000010111100001111
00101000000011101010001011111101
11010110000011001101111100010101
00111000001010101010100010101111
11110100011011010010110000111111
10011100010011111010011111110100
11111101010010111110111110101110
10100100001011001010010110010100
11101000010010111010110111110010
11100000001001001010101111110000
01111101010001110110010101101110
00101100010110001010010111110100
11111101010010111100011101101110
00101100101010001110000111110100
11011001010010111100011101100110
00101101111011001010001011100100
01111001110001111110000111100110
00001100100100000101010111010110
01111001010010111110010110101110
00101111101100001111010010010100
01111001110011110100010111101110
10101101101010001100101010110100
11100000001100001010111100001011
00110101111001001000011111100011
11110100010110111110111000111111
00000101011000001001010111100000
11111100010010011010010111011011
00101001011011101110001010010001
11110010000110111010111100001011
00000001010100001001010111100000
11110001000110111101110000001011
00001001011010001011010110100000
11110001010110111000110100001011
00101001010010001011010010100001
11110111001110011101010100001011
00010011011100001011010110010001
11111010010110111101111000001111
00001001011110001011010010000001
11010000000110011000110000001011
00111001110010000000000010000001
00010101111100001101010011101100
11110001001110010000101000101001
10110101001100000101000011101010
11111110000100010011111000001001
10110011110110100011100011101110
01111011001100110111111000011111
10010100101101000100001011101001
11111001000000010010001000001010
10010111101001000100100010010010
11011111000000010011011000001111
10101010111001101101000011001100
11011111101100010111011000111101
10001100110001001010011101001101
11101001010010100110001001101101
10001110101001000001000101001111
11111001100000110010010000101101
10001010101001111001011101001010
10101001100101110010010001100101
10010000000011011000111001101111
11101000111010101000011110100110
00011100100010010010010001101011
11101101010010101111111110100110
00011101100101001011010001101011
11101101010001101111111110001110
01011101110011011010010011101101
11101001110000101100111010000101
10011100100111011010011011101111
11101001110010101110000011110100
10001100110011010010011001000111
11101001110010101010011010100010
01011101000110000010010111101001
11101000110000101101111110001110
00000101110010000010010111101101
11101101110000001111101110000110
00001110110111000110010101001111
10101101111010101100001011110011
10001001011010011011001111010011
11110100111001111111111000100110
00101000011101010010001100100010
11110100101011110010110001100110
00101001010010111010011100111011
11100000101000101100110101100110
00101001011001010011001110110110
11111110101000111101111000101010
00100000011011010010001110110110
11110110101000010001110101100110
00010001111011110010000110111111
11010110001100011101110100000110
00101111001001010110001111101110
11000110001100011101011001100010
00001100111001010010001110110110
11010110001100010101111101001110
00111101011001011010001010100110
11010110001100011111111110010111
10011010001100000111100010110100
11010111001000010010101000111001
10001010101101000101000010111001
11010111010000010010001001000111
10001110101101000101001010111010
11010111110000011001101101101101
10000110101101000001110010010100
11010101010010010000101001001011
10001110101101000101011010111101
11010101010010111000101001001011
10001110101101000001011010111111
11010111110000111010101001001001
10000100101100000001011010011101
11010111010001111000101001000011
00001100101101000001111010011101
11010111010001111111101101001001
00000110101101000001111000011111
11010111010001110110101001001011
11111001111010111111010000010001
00000011111111101000110001100000
11001111010010100111010100110001
00100001011111101000100011110001
11111101010010000011111000110010
10100001011111101010000001011000
11011010010110111101011100111101
00000001111000101000110111100001
11011000010110010010011100110001
00000001011010101000111101100001
11010101010010010010010100111000
00100001011110101010100001000001
01001010110110000111011100111001
00000001111000000000011111111101
11001110010110000010011100111001
00100001011010100000111111111000
01110011010110000010001100110101
00100001000000100011111111001000
11010101110110000000010010000111
10010001010000101010110101000010
10010101101011001000110000001011
00010110000100110111011110001110
10110011001101111001011100001000
00001110110100111101010010100101
00000110111001000011101101000111
10111101110100110111011111101010
10100111111001101011101100101011
00010110101100110111010110101111
10000010001101111011011101001100
00110110100100110000000011100101
00001111110011000011001101100101
10001010101011110110111101100010
00101010111001110111101101000010
00010100101101110111010101111110
00100011001001011111101100001101
00111101101010110000010111111110
00110000000100000101110101111011
11011011110110110101100000000000
10110010010101100111100111100010
11101001101110010101100000100010
10001010001100100111110101000011
11111011111010111111000001101010
10010011010110000111000010100000
11101001001100010111100000000110
00000011110001000111000111110000
11100011001110010110101100010110
10001011010111100101000111100000
11101101101110011100011000110010
10010010010001000110001111010110
11000001001010010001001000000101
10001011010111100101000111110100
11001111001100010111101100000110
10001010000101110101000111000000
11001001100000010000101000110011
11111011001001100101101000010111
00011000001111101101001001100001
10001000001101100101101100011000
00011011001110111101001001110001
00001011001001100110101110110001
11011111000010010110101001001001
01011011011110000111100100110101
00010011001110110101101100010101
00001011001101000101001100111100
01010011001110111100101001000001
10001011001100100101101100111000
10111010011111111000000001111001
10000110011110001001111000010001
01110011011011111001101001011101
00011111001100000001000010110001
01110010001011111100101100010001
00011111001100000010000110110000
11110000011011001010101101010001
10110001011100100011001110011011
11110100001110011010111001111000
00110101010100100011011110010010
11110100001110011000101000111000
00111101010100100001011110011010
11110110101101111100110001101000
10011101010110100011001010010100
11000111001110011000101101110011
00111101010110100000001010010100
11000011001110011010101000111010
00101101010100100001001010010000
11110110001100011110111101001010
00001011010111100010001111110100
11100000001111001010101101001000
10101111010011100110001010110100
11000010001100010010101100011010
00101101010001100000001011110000
11010110001001010110111101001011
10010111011001001011000011100000
01010111011110010111111111011110
10100001101101111101011011101110
11110110100100010010110110110110
00110100111101111101011111100000
11110110111001010100111111000110
10101010001101110110001010000110
11010100100100010000010101100110
10101000101001110100001011001110
01111110100100010000010001100110
10111000101101111100011010000110
01111100100100010001001101000110
10110001001001101110100100111110
00010100000000110001011110000100
10111000101101111110001110111110
01011110110000010001011110100111
01111000101101111110111110111111
01011110110000010001011010000111
01100100100111110110101111000100
10111101110100010001001111110110
00100100101001101110001111000101
11111101100100010000001000111110
01001000101011100101001101100100
00010111110000010001000001110110
01100100101001000110101011000100
11111101100100010011001101011110
00100100101001100110100011000100
11011101100100010011000101111111
01101110101001111110101111000101
11011101110100010000011101111111
11110000101011111100101011000101
00111101100111000001010101110110
00100000101001101110100011000110
11111101100000010011010100011111
01101010101001111110100111000111
01011111110001010010011111011110
00000000100001010010110011001111
11010100110000111000100000100010
00000100001001010011111000011101
11111010110100111000110001100011
10100100001101110011000100011111
11010110010100110001110101110110
00000001101001000010010010011111
11010100010100111010110000000011
00000100101101000011111110011111
11010110010100111001110101010000
00100100101001010011111010111111
11010110010100111101110101000100
00000000101001000010111110001111
11010100110000111000101101110010
00000100101001000011111110011111
11010110010100111011110101110110
10000110101001110011111100011110
11011110010101110110110111010100
11011000001100011000111010011001
00100000111011001000011111011000
11110101001110001000110010111111
00111110011011101100000111011000
01110001001100000010110110111011
10111100011001110111101110001100
11010001001100011000110000111001
00110001010011001000000111100000
11110101001110001000111000111111
00111010010011101111110110001000
11111001001110001001110010111111
00011100010101101111110010101001
11010101101110000111011010011001
00100101010010011001010111101010
11110101001110101001110010111111
00011011011100101111110110001000
11111001001100101101110100011010
00111000011100111111010010101001
10111010001011111101001000101010
11001100001100001001010001100001
10111011001010010101000000101010
11101101110001111001010000100001
10001011011011000000000100101000
11111001101001101101100010000100
11011001001011111101010001111111
11011101010001010101010010100101
11011000001011011101011011101011
11111001010001101110010010100101
10011110001011010000011101101011
11101001010001111110001011000001
10011101101011011001010110101111
01111101001000111110110010100101
10011100000011010100110100101111
11111101000001111110010110000101
11001010101001000010101101101001
11111101110011110110011111100101
10010101001101101101010011000000
10010011001110010010100000111001
10010101101100000101011010010100
11110011010100011000100000001111
10010111101100000101010010111000
11010011010100011011110000101101
10001101101100100100001011010100
11100001000110010010101000100011
10101111101101000100011010110100
11010001010110011010101001101001
10001101101101100100011010010100
11111011010100011110000001101001
01101011011111000110000011110100
11111101101001000110001100011011
00001111111111000010001010110100
11011011010000010010101100001010
01111111111011000010000111110100
11011101001101110111011100011111
11010001110110111101111010001001
00101010110010101000000011111001
11010101110110111001100000011110
01001110110000101111110111010001
01101001110011111001110011111100
01001100101001101110110000110001
01110011010010101101100010001010
00101110001000000011011110111001
01110011010010101011100011101010
00001110101000000111111110010000
01110011110010101001110111001100
01001110101000001111110010010001
11010011010001001101100011001010
00101110111000110011011010111000
01110011010011101101100111000000
01000110101001000111110010111111
01010011110010101001010111000000
01100110101101100111111011111111
11011011110011011011100101100010
00001011001111101111011110111010
11011011010110111101000000110000
00100011001110000111010001101010
10010111111110111101111010010000
00001011101110000111110110001010
10010011010111001111100101100000
00100001001011010101010110011110
11110011010111111111100100110000
00000011001110000111010010111010
10110011010110101100001010110100
00001011001110000101011110011111
00000011010001001111000101100010
00000010001010100111010110111110
11110011010111111101100000110010
00000001001000000111010010111111
11011010010110101101000010110000
00001011011010000001010000100011
11111000100110110101011000111101
01110011010100100000000001100001
01001100100110010111000101110100
00100001010010001000100011100101
10100101110011010110001011110100
11000101000000001000101101110011
01110100100110011110110010111111
00000101010000000011010111010111
01010101100010001110000011110111
00001001110000000111011111010110
01010110110011001110010111100111
00000101000000000111011110010110
11010100101110001010100011100101
00001011110101000111000111000101
01011100100010101110110101100101
00101001100101000111000111010110
11001010110010101100001101000100
00001001100101000111000111100111
11001000010101011011110001110011
11101100111001101010101111100101
11001100100010010010011011001011
11100000010001101010111111100000
10000011110010110110011011001101
11100101011101101011011111000100
11111000110010011010110101001111
11101000110001101110101011100010
01001000110010010010010111001011
11101100110101101100100111110000
00001100110010010110011101001111
11100000110101101000000011110000
11111001110100011000001011000111
11100000110101101101100011000100
00111001110010011010011011001111
11000100110101101000100011100000
00101001101110110110000111001011
11100000110100100000100011110000
00100100111000100011101010001001
11110111001101010010111001101111
00110100101000100001000010111110
01010110100101110111111001100111
01111100111000111111011111101110
01110000011001110101111011100010
00110000101000110011000010011111
01010110000101010000110001101010
00100000101000100011010010011110
01010110100101110101110001100011
00111000101001110101011010001111
01010110110101110001110001100000
01110000101000101011100010011111
11010110100001110001110101110000
10110001101100100011010010111111
01010110110101011001110100000001
11110001101110101011110010111111
01011111110001011001110110000101
10111101101100001110001000111011
10010011001110100101000000100000
10101011101100101111001100111110
11010011001100010011000000000000
10111111011100110100001100111010
11101010011100010011000000000000
10101011001101100111001100110010
11010111001110110001000101101001
10101011101101100111001100110010
11010111001110010010001000001010
10001111011101110110001100111000
10111110001010010010001101001010
10101010111101000111101111110000
11110110001010010011001100011110
10001011011101000111000110110000
11010110001010010011001000011110
00001110111101100010000110110000
11010100001010010010001101011110
01000111010100011010010101100111
01100011100000000101011111000010
11110101000111011010110101001111
00001100010010001101010010010010
11110010111011111000011101001111
00011110110110001111010010010000
01000101010010001011110011001111
00011110011000000011111110111010
11110101100110001000110101001101
00000110110000001111111010100101
11100010000110101000111101001101
00000110110010001001100010010101
11110110010101111001111101001001
00101011111110011000000010101101
10000110100101101001011001001001
00100001110011101010001111001101
10000110000101001001011000001001
00000000010111100010101110011111
10010011001111110111011101100001
11101000110110010110100000000001
00010111001001100111110100110000
11111110010110110111100100001110
00011111001001011101110101101011
01101110110110111111000100111011
00010011001101100101000111100100
11100100001110010000100100111010
00110011011011101101000111100100
11110110000010110111110100010110
00111111000001110101010101000000
11101110110010111000100000110110
00010111011111100111000100111000
11010100001110011111000100010110
10111011001101110101010101100010
11111110010110010001100000110100
00011111000101101101011011100000
11111001110010011000000100111110
01100001110100001001100110001011
01000011011101011101111010001110
00010101110100101001010111001100
01101011111100001101101010101001
01000101110000101000011111010000
01101010111111101110101010001010
01110001010010101001100010001100
01000110101100010111111010011100
01110101110010101001010111001110
11001011101100011101111010110001
01000011110010001000101111000100
11101000101101111100101010100000
11010100110000001101101111001010
11000110001110010110111010011101
10010110110010101101010011000000
11100001001101101110111000110011
10010111110010010000000011000000
11100000111111101110111011110010
01101000111101000110101110000110
00011001001101001101011111000001
11101100010100100110001011101010
00111101001000000101001111001001
11110100010000100110100110100010
00101100001000000011001111001000
11101000011100100110101011111010
00011001001100000101001111000001
11011000010000100100100011001010
00111001001010000111001110001001
11011101010000100010101011001010
00111001001011000111001110001000
11001001010110110111100011000010
00000111001101001101001110111001
01001001010010110100001011000000
00111001101111000110001010101001
01001110010000100001001111001000
00101001101111000111001010101000
10110011011101111101101100011010
11001110100100010001010100000001
10111011001001110101111000111100
11111111001110010110010100000001
10010101001011101000111000010010
11011010010010011011111100001101
11011011011011001110100100110010
11011110000010010111010100011101
10011011011010011000101110110000
11011111001110010110010100100000
11001001011011110000111101110000
11011001001110110100001100100100
11011011010011001010100101110000
11001100001011000111101100011110
10001010010000011000001101110000
11111000101011101110111100110010
01011110011011010010001100110001
11101000011111100100100101000010
01011111001010111000010001110000
00110101010111010110110000010001
01101011001010010101110101111000
11111100110011111010110000110000
01001010101001010100110111111000
11111001110011011100001010111010
01111001001010111101010110111000
00011110010111110110010000110000
00111011001011111101010101111010
01111100110111111000000000100000
01101010001001010001110100110000
11111000110011110000100101010010
01110101101110100101010011111101
00010111000100111101110000010001
10110101001011111101011001111000
00011100110111111000100000100001
10011110001011110101111000111001
11111010110010111001100101011010
00000111010010011000001110000101
11000001110111111101100111110010
10110011001111011000010000111100
01010111110100011101010110010011
10100001011011101101000100011100
00011111110110001001001110010001
00000010001000011010111000100001
01111101110011011001010111011010
11010011001011011000110000111111
00010110010001011111011111011011
11110011001111011101111010011110
00011111110100111111010110100001
00100110101001011010111011110110
11111111110001010011110111111010
11110011001011101001111010111111
01011111110111111111011110011111
11111010001101011101111001111010
00111001110011111011010110101101
10011110001100011111001001101011
00111001110010000001001111101001
10110100101001001110100001101011
00010110000000010111011110111111
11101001110001001100111010111111
10001110001001010111011110011111
11000110101101011110101001001111
00111101010011000001011111111110
11000100101001101110100001000011
00111100100000010111011011011110
11101000101001101100111001001010
00011100100001000111011010011111
01110110101101011110111101001110
10101100110010111000001011101110
11010010110001101110101101000011
10101100100011110011001110011110
00101000100101111101011101001000
00101000100101100010001010111111
00011011101100000001000011100001
11101001100000010011101100001111
00001100100001100110000111100000
11100101010000000111000101011111
00000101101001100110000111100110
10111111110000010111011100111110
10001110100101000010000011100001
11100001110010110010111101010011
00010111110011100010000011100010
11010101100000010011110100011110
00111011100011111110000011000010
11101100100100010101010000111110
10110111101111000110110011110010
11110101110011100000010100010011
10110011100101111000000111000010
11101101100000010011110100110110
00001011101001111010001010100010
11111011100000000010100100110110
01011011110000000111100001001011
01101001001011100111101010101111
01001010000100000011000000110011
00110011001001100101101000001110
01110011011100010111000110110011
01010110001101110101111110011110
11010000110110000101100000010001
01110001011001101100101000101011
10001001110110000101100000010001
01010010001101101100101001101010
01110011001110000111000010010011
01010110000101111101101000100001
10000100111110000011000010010001
11010011010001111101101100001011
11010000001110000111110010011101
01010011001101111101110000101001
11100000101110000111111010011101
01010111100100011100100001100101
10011000011101001101100111101010
10111100101010110001010110101001
10001000001100010101001000101010
00111001101011110000011101101001
10101100001101000101001000101110
10111000001010100000001101001001
10101000011101010111000100101010
00111100001000110110001000101001
00001000011001010111100000100010
11111100001001110010011101001001
00101000011100000110101010110010
11111100001000110100011101001001
00011001010011000101100111100010
10110100101000110011001010001011
00101101011100000111100001100010
01111100101001110111011100001101
00111101010100000001100011101010
11011110111001110111111010001100
00111001010100110010000010111110
11100111001100011101110000110000
00111001010000100110010011100110
11001111101100010101100000010000
00110100010100100110100011101110
11001111101100010101110000010000
10111001010000100110000010010110
11000101101100010110101000010000
00111101010000100000001111100110
11000111001100010111101100011010
00111101010000100100001111000110
11100111001100010001100000001010
10011000010010111100000111110110
11101000001101000010101000010000
00111001010000110100000111110110
11101101101100010000101100001011
10111101110000110010000111100110
11000101001100010101111001001010
11100111110011110010101100001011
10001100011101000011010111111010
11100110110111101011100000001001
10100110100000000111111110010010
01110001100110101011100010011111
11000011001000000101110110001010
11100011010001111011101101001011
00001110100101100101010010111111
11100010110011101011101101001001
00100100100001000011010011110101
10100010010110101001101100001001
00000000010101100011010110110110
10111011010101111111001101001011
10101000101110100011111011111110
11000001110101110111000101001011
10100000101111100000000011111100
10111110000110000101110101001010
00101000101100101000010010100001
01010011101111101001111111111101
11010011100111001100101110110110
11011100110110000001100000010101
10000001001101101100100011111110
10011100100100110001000000000000
00100001110100001000100001010111
00001110110100000101001101110001
00100001001111101010101001111111
00011100010110010011000000110000
00100001011111101000100001100110
01001011110010010010000100110110
00100010001000101011111100000010
01111001000110110110000010110111
01101000010001001000101101100011
01010101110010010010000010110111
11010111001001001111101000010010
01111011111010010010010111110110
11001111100011011111111010000010
11001100110100111011101011000011
00110001101011100010011111011011
11001101010100110011111011001010
00100100101011001001111111111011
11001101010000111011110010001010
00100000101011001100101011100001
11101100010000111001101011001000
00000001101101101000111011011001
10001001010100111011001011001010
00100100101100001000001111111001
10000001010100111011001011001010
00100110101000001000111011100001
11001010010000111001101111001001
00001010101101001000101011111001
11000001010110111011001011001000
10000001101100000000101111110001
11000010010100101000001111001000
10100110101100010000110101110001
01100010000011001011110100000111
01000000011101101101100010110110
11010010001110010011110100110101
01000000011111101001100011000100
01110111111010000010011100010101
11000010001100100111101100000110
10111100101110000111111100011101
00100010010100101000100011100101
11010100100110000011010000111101
01000010010110101010100011000100
01110101101110000010010110110111
01000010011111101111100000001100
10111100101110001110011000011111
01110010010110101001000011000101
10010101101110000011111010111111
01010010010110101100100001000100
10110101101110101000010010111101
11011011010110110111110000000100
10001111001111110100011001110100
00000001011110001000000101100010
11011101001110010110011000111110
00100001110010101000100101000000
10001110001110010110011001110100
11111001011110101010100101110000
11001001001110110100011000111111
00111001010010001000010110100100
11011011001110011100011000111011
00111001010010101000100101000100
11111111001110010100010000111111
00111000010010101010110100000000
10001011011110111001011011110110
00111101110010001000010110100100
11001011001110111100011000111111
01111001110010101000010110000000
11111001011110111010011001110111
00001001110100101111110110001000
00010010100010011110100000110010
11010100010001100101111111100110
00110011101110011000010000110101
01011111011001101101110110100100
11110011111110011000011010010100
01011011011100101111110010100101
00010011101010011010111010110101
01000110010001110111110110000110
00110001101010001000010010111101
01011011010101111101110100100110
10111011101110011000011010111101
01011011010101111101110010100101
00001101111000101011100000110011
01010110001101010111110001111110
11111111101010001000110010111101
01011011010101111111110110001110
10111010101010001000111110111101
01011011111101111101110100000101
10101000101101111100101000010101
00111101100110011000000101110101
11101001101011110101101100010100
00111011101110010000000001110101
11001111101011100101001000010000
00010011010110010010100101011110
01001011101001110110100100110111
00011111100110010110000101000110
01101011101101100100101110110100
00011110101110010000000101110111
00001011101001110100001101110100
00111011101110010000001001110111
11011010101101111110101101010001
00011101110010110111010111010111
01110011101001111111000110110100
00011110100000010011011100011110
01010111100001100110100110110100
11010110100110010111111101011110
11101100010010010101111011001000
00111000110001101101100001111001
01011110010010000011100011110001
01101011001011101110101101001010
01000110110110000010111011010001
11000011000101000110100111011101
01011100010010000101010011110100
11000001011111101100100001010001
10011100010010010001001011000000
11101000111111101101101001011011
01001010110010000010000101000010
11000001001001101110101101011010
01011101011100010001010010111101
11100111011011000001100100111011
01000100010010000001000011010100
11000001101111101100100000110001
00001110010000000001101111000000
10100010111011100000101001101011
10110001111101000110000111001110
01011100110000110101111000011001
10110001001000010111000111001111
11111110110100110001111001100011
10100001001100011101010011000110
11110110100100010101101001110111
10110011101101101010101111001111
11010100100000010001111110111100
10100010101101101111111011001011
11110101110000010001111101110010
10110000101101101101011010101011
11110111110000010001110100110001
10001110000101110011011001001011
11100000100100110000001101100110
10101100001100010111011001001011
11110000100100110000010001100100
10011101001000111101011101001010
00111001100100110000000001100011
11011100011010000010110010010010
11100001001000100111001000101011
00011000010000000001111011010000
11011011011101111111101000101101
00001010111100000101100011011001
11010011001101010101101010001000
11010000000010000001100011010111
11101011011110111100100000101101
00001110101100000101010011010001
11110011011101111100100001101001
00001110111100000101000011010001
11110011111101111100100001101001
10010100000100000101000011001101
11100011011011101000100001000101
10001100000100000101011011010000
11110001011001101000100001101001
10000101101110000101100010011001
11010011010001111100100000101011
11010101100100001001111011101101
00010101010010011010011101010001
10111100000100001001010011001100
01100001110100111010100000110001
00010010000100011011011111001000
01111100110000101010000000110001
00010100100110001001011010011101
01100001010110101000101101110001
10010111100010011001010111001101
01100001110110101010101000010001
10010111100100011001010111001100
01100101110010101010100000110001
00010101111100110010011011110101
00000111010010101000111101110000
10010101100110111000010011111100
11100101010110001010100101000001
00010111111111101001011111111100
10101111110010011010101000110011
01111100101101100110011100110101
00011111100110010000000001110001
01101001101111110100100100110101
00011010101110000000000001110111
01001000101011110001001101000111
00111000101101001000100001100111
01110011101101100101100110110000
00010111100011010010110100011110
01110001101101101110100110110100
00010110100100010010011110011111
01100011101101101110100110110100
00010110100000010101010101011111
11000111001000100111110001110001
00010001010111000001010100101011
11000111101101100101100100110000
00110110100111010011010110011110
01010001101001111001101010110001
00010100101011010011010110011110
01101100110011001110010101100110
00110100101110101111001010111110
01001101110101000110101101000011
00101001101010100110001011111110
01110110110101000010100101110111
00100111001010100111001111111110
11101100110111000111000111000110
00101001001110000110001010011111
11101100110101000101111001000110
00100000101010000100001010111110
01010100110111000110100101000101
00100110001010000111001111011110
10111100111111100100010111000110
00001110001110000010001010011100
11001100110101110100011011000101
00101001001110000000001011101110
11101100110110100100001001000101
00100010001110000111001011101110
10011110100010110101111001001010
10101001110011001011000001111111
10000110101111001011100000000011
10110111000000010011011010101110
01110110100100001010000101110001
11000111100000000111010110001111
10110000110101100110100111100010
10000000100100010101000010110011
10101110100011111101001001000010
10101001100010001001000011100011
10000010110110010011100010000011
10100101001000010011111110001110
01110010101100001011000100110011
11000010000000010111100110011110
11100000010101111110100111100010
10001101101100000100000010110100
10001010010011110110101001000000
00101101110010001001010001110011
00110000111100001111001000001111
00010011001100010001011111000110
10100001011001100110100110110011
10110110001110010111011000011110
00101010010001100010000111100010
11100110001111010110101000011110
10110000011100100111001010001001
10110011001100010001011101000110
10110010011101000100100010110000
10110010001000010011001100001100
10100011110000100100000110110000
10010110001100010110101100011110
10000100001100011111001000100011
10110000010000010010011110100101
11010100011101010101100110110011
10110101001100010011001100001100
11011110111000001100000011000000
11101000001100010110001010001101
10100011001111101110010001101111
11111001110100110001010010100001
10111011001101111101000000101110
11111110010100110001010010100101
10110011001011101111110101101000
11111110000111110111101000010100
00110001101101111110000000111110
01011011000100110101110010000000
10110011001101111111010100101110
11111101110110110101010000110101
10011011001001110100001101111010
11111100000100110100000010010101
10000110001101000011100100001111
01011011000000110101110010000100
00010111101101001010100100111101
11011101000100110111110010010101
00011011001001100101011101001110
11111101101110110110101010010101
11010111110111110111110101110111
10100010111110100110100001111110
10100011110001110111010101010110
10100011101110100100000001110010
11000101110011110111111101000010
10100000111110101100000011111010
00110111110011100110000100110110
10000110001110010010100100010110
10110011100111111111000101000000
10100111001110010000000100110100
10000001010101110101001101000000
10100000101010010000000000010110
11110000100001111111000100000110
10100000000100010111001110010101
10110011000101010100000100000110
10101000000110000000000000010101
11011101000101010101001101000011
10101000010010000010001010000100
00000100000111001001110000001011
11000010011001101000110011101001
10010110000010001001110011001011
11100000010000101001111011100001
10001011100011010111110111101011
11101000110000000110100000000001
10001101000011011011011000001111
11001110010110101000100001100001
10001101000010010011011011001011
11101110110010101010111001100001
00001111100011000010100111101011
11101100110010111010111100000000
01010111100111101110011101111110
11001110011100101001100001010001
00001111000011100001011101001110
11101000110110101110100000110001
00101010010001100010101101000000
11101110110111111010111000011010
01011111110011000010100011000011
01100110001111100011101100011110
00010111110010000010010011000100
11000011011101001101111100011011
00000110110110010000111011100100
11000011011000101101111100101010
01110101110010100000100011000001
11100010111010001010111101011010
00110111110010001010110011100000
11000001011100001111101100011011
00011111010010011000011011000100
11000001010001001000100101101011
10011100010110110001010011101011
11101000010000000000010001000110
10011101110010000000010010110010
11100000011000001010111101011010
10011101000010010000011011111110
11000001010001001100111100100001
01010111110110101010100001100001
11110001101011100111001111011011
10111010100100001111101001100011
00010101100000010111010100101011
11001100101110111101100000111011
00011101000000100101010111101011
11000110110100000010100011100001
11110011101001010111101110011110
01000010110101101111100001100000
00010111101000010111010110111011
10011000001101111101101001000010
00011101101001010111010010100011
00001110010011000011100011100010
00011011101011010111001101101110
01001011011101000011100011100010
00000111101001010111011110011011
01011001000100001101100011100010
00000101101000010111110110010111
00001111001100100110010001011011
11011011110110000111001011101000
10010010101100001111111010001111
00011111010010011101001110100001
10110000001100100101011010001011
10111101010010010010001010001101
10001010101101000111011011001101
10010011110010010111001111011101
10001010101101000101111010011101
10011011010000011001001110101101
10011100001101000101111011011111
10111111110010010000001110101001
11001010101001000101111101001101
10011111110111111111001011111001
10000110101100000101111001001101
10111101110010111000001110101001
10001100000100000111111001001001
00111101110010110000001000001001
01010010110011101010000111111010
11001111101101110111110100000100
01001010110010100111000111010000
11000011001101100110111101101001
01001010010100000110001001000000
11000101101101100000010101100001
00101000010011100101000101000010
00001000101101100111001000101001
00001010110011000101000101000010
01001010001111100100000101101001
00001010010010010111001100110010
00000000001011100000011101101010
01110001100110101011000101101001
00011110101001100101101111010001
01101010010010000111100101010010
00010010101111100100000101111001
10101000010000110111101101000010
00010100100111101001001101110001
10111011011010010100100100010110
01110110011010011010000000010110
10011001011101011010100110110101
01011010110010011110110100000110
00100101011110011010010010111101
01010010010110011111101100101110
10111101001100001110111111110100
11110100010010011111101100110110
00110100001101010000111010111101
11011000110110011111101100001110
01011100101101001010110010111101
01011111011010111111111110001110
10010110001100000001111010010000
11110001000010011010001000011011
00010100101101000010111010110101
11010010010010011110101100001111
11010100101110001010111010111101
11010010010111111111111101001111
11100101111011101110110010110110
10000110101111010011011111001011
10101000001101101111101100111111
00010111101100110001010101110001
10101000001100110101001001101000
00100000100000110000010101000001
10111000001101101101101000011010
00010110001110010001000010101001
10101000001000110101001000111001
00110000001111110011000101001001
10111100011000000010001000111010
00110110001010110000011101001001
10101001001100100101011000111010
00110100001110010010000100101101
10101001001001000110000100111010
00011100001000010010000101001000
01110101011011010111110010111110
10011110001100010111110110001000
01111001010111010101111000111100
11011101101000101100110010100101
01001001000010010001111100110000
11101000110011101000100010100001
11010110010111010010101000100001
11101000011001100111110111001110
01001001010010011010011101101101
11001001010001101111110010100101
01000011000010010001011101100101
11101001110011101100100000100100
01000111000010010010000101100101
11101000110011101111110010001110
01011111010011000010111100101101
11000011001011101110100110000110
01000110010010000010110101100101
11101010110011101101100010001110
01000110110011000010101110000001
11001011001011100111111100011110
11001010011011010010010100010000
00100000010011101111001111110110
01101001100010110010010000010110
00000010001101101110001111110010
01001001111011111110110010010110
00011101010010001110101111010100
01110001110010011010000010010000
01000011010111001111100111010110
01110001110010101010110110010100
01000111011110001111100100010110
01110011111010001000110111010100
01001011111110111111101000110000
11011001010010111001110011010000
00001101100110001101110110111100
11000011010010111001011011010100
01000011111110101110100010110001
11001010010100011100011011000001
00100001111110101000110000100011
01001110110111010110110111000110
11101101001010101110101101110111
00001100110000010110010011100010
11100101111010101001101101100011
11011100010010011111010001001010
11101101010010101100000010100001
00100111110011100010010011100110
11100111100110011010101101010010
00001111110110110010011111000100
11100111011110011000101101110000
00011101110110010000010011100100
11100101111010111100100001000010
00001011110111100110001111000100
11000001101100010100101100011010
00000111110111101010011111000100
11000101111100011100101101110011
00110100110011101000001111100100
11101111111110011001100101000010
01011100010010000011100010001100
01101111001011110011111111011111
01010101010010010000000101100000
01101101101001101111111110010010
01001111110111010010000111010000
01001101101001101111111110010010
01110101010010001010000001100100
01101110000001101001110010001101
01110001010010011001000001000000
01101000101001101111100010010001
01110011010010011000010101000000
01001000111001101001100010110001
11111101010110011011010000101101
01001111001000111001110011000001
11110101010010011000000001101110
01001010010101101101110010100001
10110001110010001101010001000110
01101010110100101100100001100001
11010000000000011001010101101011
10101100010101110111010010001111
10010010001001010110100101001011
00111100110001110101010111110111
01000110100001110110110100001101
11010111110000010001110111010111
10010000001101011101110100001011
10111100110010110111010010000100
10110000001001011011110111001011
11111100110001110101010111010111
10100010101001011111110111001111
11011100110001110001010111110110
10110101001001001101110000101111
10011111110010111001010010000101
10110000001001011111110001101011
10111100110001110111010110000111
10111000101001010111000101001111
10111100100001110111011110010110
01111000100000110101010111011011
11111100111001111000100011001001
01100100110000110011101011000010
11111100101101010100100001101010
00100100111010100011000011001000
11011111111101011000111001100001
01110001110010110001100011000000
11001010101101010100110000111011
00101101110010100010000011010000
11001110101101010100110000111010
00100101110010100001001011001100
11000111111101010000110001110010
10111101110010101001000011011000
01101101101101010000110000101001
01100101110010101001001011000000
11001111101101010100110000110011
00100101100010111001000111011100
11000111110101010000110001110010
00000001001010000010110010110001
00010011000101100111011100011111
10101011001010110111001011110000
11011011101101010111010101100011
10101000001000111111001011010000
11001001110010010001000100100000
00011111101011000010100010110010
11010111000001110111101100001110
00101011001011110111000011110000
11010001001101110111100100100110
10001010001011110100001011110000
11111001111010011000001100100011
10111011011011010011100000100011
11110011101001010011101100011110
10101011011011110101000111110000
11000001101101010101100100100010
10001011001001110101011011010000
11011001111110011000000000100000
11011100001110010100111001110010
00011101101011100100001011101111
11111000111010000111101000110010
00011111001001000011011110001110
11100011101001001110111000110100
00011011100000000101001101101101
01111100011110000100001001110100
00011001001111000100000001101101
01101000011001000101100001110000
00111011001001000111001010001111
01101010111001010110101001110000
00011011101001000111001110001110
01111001001110010100000011110100
00011111101100000100000011100011
11101000010001000101100001110000
00011001101101100100000000101111
11101000011001110101100001000000
00011000101011100001001011101001
11110101101001101100011011101111
00011001110100001011110011110101
11000101101010101101011011101101
00011001110100011011000011110001
11010011101010100101011011001100
01010111101101010010010111110001
11001100100011111101001101001111
00101100110111100111010011100101
01001111101001101001101101001101
00111111100101100100001011110101
11001010101001110101001101001000
10101001100111101000001001110001
01110101100010111000010101101101
00011011100101100100111010010101
01100011111011111010000101001100
00011100101101100000101011110110
01001011100101110011001101110100
00010110101011110000100001110010
01011111110110001011100001100111
00001011110010101111111111000010
01011011110110011111100101000100
01001001101101101111101010010010
01001011011100101111101101010101
01111011100010100111001111010010
11110111110010001011100011100110
11001011011010101111101010001110
01011011110010001111000011000100
01001011101101100101111010110011
00001010010010001111001101100000
01100001101101100101110011110011
11110111110010001001100011001100
01001011101100111101101000100001
10111010010010011001001001000100
01001011101101101101101000100011
00000010010010001010101011000000
01000001101101100000110000000011
00000110001001000011110111001011
11010010100110000101101100011101
10001010100101001011101001001010
11000101110010000001001111110011
10000110000111010110110011001111
10000111100010000000011111110001
00001110100101000011100111101010
11100101110110010011001111011011
10000010100001010111100111001011
10000100100010000001001111110011
10000011010001110111100011001010
10100101110010000011011111010011
01100001000100010001000011001011
10101001100010101010101111001011
11000000000101010101100001001010
10100100100010000001001111110011
10000010010000110101100111001010
10100100100010000011001011110001
10111001010100101001111011001001
11100001101100010010110100001100
11110110110100001010110111000001
11000010110101000111110110011011
00111110010100101010010100011001
10000000110100010111110100000001
10101000010000100001001001000001
11100001111010101000100001101001
10000100010000001000100001100001
11100000011101101010100000010011
00101110010010000011010101001000
11000000010001101011110000101011
00001000010010110001001111010100
11111000011011100010101001100011
00000100010010000010000100000001
11100110010001100010111001011010
00100111110010000010110101000010
10000010001001110011101000011010
10100100101001000010000000001011
01110110010101110110010011100110
10100001101011111111010100001110
01010110110101110001100001100100
10101000101001010101001101001100
01110000111101100101000001100100
00110001101001111010100110011111
01010110010100010000010010010100
10100001101101111010111110011111
01011110110101011000110011110100
10110001101101101101111010011111
01011111010101110000100010000101
11000100101001100010110010001110
11010101010101010011100100011100
11110110101101101001111010011101
11011101010101011110110110010101
10010010101101101001111010011101
11011101110111111110111110110101
01000100101010101001000000011101
00011011110010001011101110011110
01110111101110001000010110011101
00010011110100001111100010011100
01100111101000001001010101010101
00010000011011101011100010010000
01110010101110101000111010011101
00011011110100001101111010011100
11110101101110101001111010011101
00011011110100001111100110111101
01011111101110001001010010011101
00011011010100101111100000000101
01010110111100101000101010110001
00000001100001000111010100011111
01110010101110101100111010011101
00011011110100011101100100001001
11001010101010001001111000111101
00001001110101101111000000100011
10111010001100111111001100111010
00111110101010010001010010101110
01110001111110101110001100110001
00010110001101010110010110001110
11110001111100101000001110111000
00010010001101010110100000010100
11101010011100110111001100010010
00111100101110010100010001101110
10101010111001100101101100110010
00110110001001010111011111001110
11111011111100101111000100110110
00010110001101110111111110001100
00100100111101011111101100110111
01011010101001110101010010111110
10111010111001000111101000010110
00011110001101110111011010011110
10111001111000101111000000110111
01010111001101110101110010010110
00110001110111011111111111000100
01011110111011111111111001101001
00110001010010001000000010010110
11000110001101110111111100001000
00110001010010101000110111111100
11001000101100011110100000111001
00110000010010000011111011000000
11000110011101111101101001111001
00010011010010000001001011100100
11000010111111111111100001001000
00011111010010000000000110010000
11000010001111110111100100001010
10001100010101010111011100011010
11100010101011101101101101100011
00001101010010000011000000110000
11100010011101101100101101101000
00101111010010000000010101110010
11101010001111101111011000001001
10000010111010100101010010110111
11010000111101111110100001101101
00001001111111010111000000110111
11010001001101110100100001100010
10101000101110110111000010110111
11010011001100100100100001100011
10100011101110110011001100110111
11010110001101110101110001100111
00000011111110110111001100110001
11010010001100110001110101100010
10101011101111110111000110110111
11010111001100110001110101110001
00101010101011000011111100111011
11010110101001100101110001000110
00001010111111000011101100110110
11010110001001110110110101100010
00101011111011010110100100110111
11000011101000110111111101010110
01110101111010100010100110010011
00010110111001000010111110011110
01110001010010101010110100110011
00000000001001001100001010011110
01010001100011000010101110010111
00001000010011000101011110111100
01110110011110100101111001111010
00000011001110000010000110111100
11010000111111100101111100110001
00000001011111001010000010111111
11001010110110100101011000010011
00100000011111001010000110111100
10101000100100110100001100110001
00111010111100000000000001100011
11111001100000110100010100111011
00101000010010101010000001100001
11111001001010110111010100111111
00101000010110001010000001100000
01111001010010001001010111101101
01101100101000100101111110010001
01011101010010001000110101101111
11101000111110101111111011010001
10101111010001010000010101101110
00101000111111101110001101100001
00110101010110001001011110001001
11100000011011101111111110011001
01010101110010001010110111001111
11101110010111101111111110010000
01110001010000001010010111001110
11001000001111101101100110010001
00110101010110101011111011001100
01100100001110001011110001011001
00010110110010101010100101001101
11100110011111101110110010011010
01110111010010101011000110000010
11000010101111100111110111011010
01010111110010100011100100110100
11000110001111110111101101010010
10000101110110100011000110010111
10000011001100100111101101111010
00100101110011110000001100010110
10000110001100000111101111011110
00100110110010100011000100100010
01000010001101100111101100011110
00010011110010100010000100100100
00000011001100000111111110011010
11110011110011100110001100000110
00000010001100000111011110011110
01100110110100100011100100100110
00000010001001000111111100001110
01110011110011111010000100100000
01000010001100000111101110001110
11110011010010111110000100000101
00000010001000000101111110010010
10001110111100100100111011000001
00010101101011111100001001010011
10111010001100100111100000011011
00010110101011110010011011101001
10110010011100101111001100111010
00010110101100010000010001100001
10101011011100000111001001011001
00010100001100110000001001101011
10100011011100100111101000011011
00110110001100010010011011101001
10101000001100101111101100111011
00110110001000010001011110101001
10100011101100100111101010011000
11110111001110010001110011101001
10101011011100100011101000011000
00110010101100010010011001101001
10101001011100101011000100111011
00110000000100110010011110100000
01101101111000000111100100111101
10111010011011100110100110000101
01001010101001000110101100110001
00111000001011100000001101101100
11001100101111010110101000011111
00110100011011101000001011100001
01100100101001100100001100110000
00110010001111110110000110011110
01101100101001000101100100110000
00110010001111100110000110111100
01000100101101010111101000010101
00110010001011100000000111011100
11111001011011110101001000110100
00111010101101100110000101000101
01101001111011110101001000010000
00110010001111101100000001111100
01000100001111010101111000011101
00110010001111000000100011111100
11111100011100111100010010100111
01101101011010010010001110000001
11011101111100101111000011110111
00111101001000010110001010001111
01111011111100111100001011111110
00111101101110010111001111001101
10011101111100100100010011100100
10111101001010010111001010000111
01011110110100100100100011100100
00111001101000010111001001011111
01001110110101001110000011100101
00011001001000010111001111011111
11111100011110101100000011000100
11111101100110010110100010111001
00001100110100100001001011000000
01110001100011010010001011011111
01010110111101001011100010100101
01000111001001010111111111011011
01110101001001001010110011110100
01011110110010010011100010011110
01100101101101000010110010010101
11010110110100011001101001011110
01110110101100101100110011010101
11010010110101011111101000011110
01100010101100000000110010010100
11010011110101011010100000011110
00100110101100100001011010011101
11010011110100111001100100111110
00110100101110100101010010011101
11010011010100011110100000111101
00011111101100010101110010010101
11010000010001101000100001110001
00100100101010000010111010011101
11010111010100111000100101100001
10110101101110100101010010011101
11010011010000111001100101110001
01010011000010110110000000010000
00000010000111101011101101110000
11110011110010001001100000010100
01000011001111101101111100011010
01011011001110110001011010011100
01001011011110001100101000110001
11011101010010000010010010110010
00000010011101101101101100011000
11111011111010111001100010010100
01000011011101101111111100000001
11011010000110111001011011001100
01100001010111101000100001100001
11011101111010111100110000111011
00011011001101001111011000001100
11011011001010111101011010011100
01101011011011101101101100100101
11000110100110001011011010011001
11101001010010101000101000101001
11000111010100100011000111101110
00100111101110000110111110011100
01110110100000001111111011001011
00100001010011001111001010011101
01110110100001001011111111001011
00000110110001010111111110011110
11011110100000110111000001101010
00100001010111001110001011101101
11000100100001100101011000001011
00100001010111001000001011101111
11100100100101100101110000001011
00110001010101000010001011101101
11101101101101100110010000001111
00010000110100001000000011100001
11111111101100110101110100001111
00110001010100101000000011100001
01110101101011110101100000001110
00011110000100001000000011101001
11010001110110010101110100100111
01101010110111101100000011100010
10010111101011000010100100000101
00000010010110101111110010100110
11110111101010101110100000001111
00010011011100101111110010011111
01000111111111001010101100010101
01000010011111101101100111001110
11010111101111001111101100010101
01010011010110100111101100011100
11110011101101000111100100010101
00010011000110100101000010111101
00000110011111001011100010110101
11010011010111110111101000010100
01010011111111000111101000010001
11000011001111110111101101011111
10111010101101000111001110010100
01010011001111110100101100110001
10001101111011111010101011000111
01111101110110101011111111110111
00000110110011001010000011000100
01100101110110001110111101110110
00001110100010010111000111000100
01000001101110001000100101110011
10001100110001010010111011000100
11101100110110001000111001110111
00000110110011000010000011000101
11100100111010010010101100010110
00000110110011000010000111000100
11000111100010010000101101110010
11101110000011111010110011000100
11001100110110001000001000110111
00100100110010110010101011000100
11000111110110000000101001110110
00100111110110001010000011010101
11000011100000010101100101010010
10110101111111011001010000110101
11110011011110101110110001001100
10101111010011010001100100110100
11000011001001101111110000101101
11001101000110010011011010011101
10000010111001101100100001100000
01011111110011000011000100110000
10101010001011101110001101001110
01001101010010000100100100110000
00000001001011101110001100001100
01001110010011010010101101110001
01101000001011101110101100101010
01001101010011000110000101111000
00100010001011001110101101011110
01001101110011000110000101110000
00001000001011100110001100001110
01101000110011010110011001110000
00101000101011101110101100001010
01010000000100000001100101101001
11111101000011100011011010001110
01101010101001000101110101101010
10011100000001110111011110101111
01101000101001010111100101100010
10011100110001101101011011111111
01110100001101000101100000101011
10110110010001110010000011001101
11111000101001011101110000101011
01111100010001110110010010101100
01101000101000010111110101001011
01111100110001111001000011100101
10110101101110000001010010111011
11110011010000111010100000111100
10110101101100000111110010111010
01011110010001110101010010100101
10111001101010010111110111111010
11111010110001111100110000110111
10100001001100101111100000111011
00010111100110010001000110000100
10101010001100001111000000111111
00010010010100010001000100100110
10101010001100111111110010111111
10010110000110010000100101110100
10101000101101111101001100011101
00010010000110010000000101100010
10101011001101100101111000111001
00010110000110010001000100100101
10101010001101100111101100111011
00110010100110010010000101100101
10101001001100011101010100110101
10011011101110111000000101100011
10101011001101101101001100111110
00011111000110010000000100100001
10101010001001110111001100111110
10111110100010010000001101100010
00000101110100000010110010111001
11000100001001110111101110011110
10111101001110011110010010101110
00011110010101111101000010100001
10111000101100010001011001001011
00101100110011101000101010100001
10010101111011101011100100111111
00010110001001000111111111011100
10111001001100111111010100011110
00011111010101111111000011100001
10001000100100010101111100001111
00111000010111101010001011100001
10110111110011100111100010001110
01100110011100111011011111010100
11001000101101101101011110111001
00110010101100111101000110000101
11001100111000011111111111011100
10011001011111111110000011110001
11101010110111101010100101100010
10010100100010100111011100011110
10010000100100111111010100001101
10100001110000001001001111110001
11011001000011010100011010011101
10100111010010001000001001100000
11000110110101001111110000000001
11000101110010010011011111011111
10110110100110011110011111011111
00000001110010001001001111110000
10010101100110011000010010111101
00100001011010001001000111000000
10000110111101110111100000010011
00110110010010000010111111011110
10010100100100111111111011101111
00100001010010001001011111111100
11010100001110111100111010111111
00101000010010001001111110100100
10110100001000111001010010000100
00001011100100010001110000000011
00100100101001101001101010010000
11011011110100010000110000000011
00010110101001100000110111011001
11010010110101010000110000111111
00111101101010001001101111010100
11011011000101110100100000101001
00101110101000000001101111010000
11011111100101110000110001101011
00100110001001000001100011010000
11010111100101110100100001011011
01101011001110111010101101110100
11101001101111110100100000110010
00000010001001100001101101110000
11111101100101110010110101011010
00100001011000100011100101110000
10111100100001110110010100011010
00101111110001000001000010000000
11100010001010110110101001001101
00100111110001000010000111000000
11000110001111100110101001011111
00001110111101000001001111000010
11000011101101111110101001100110
00000001110001000010100111000010
11100100111111111110100001011101
00000011110011000110000111000000
11100110101101110100101001111111
00000011110111000011111011000000
11000110111011111100101101111110
00011001110111100011010010000010
11100110001111101010100001010001
00110011110001000011000111000010
11100100111111101110100001111010
00001011110101010111100101000010
11000100001011111000010101111100
00000011001001111001011110111100
01011011101000010000011000100001
00000010001000011000011010111100
01011111010100011001111100001000
10110011001010101000011011111100
11010111000100011101111100000000
01010000001000011001111010001010
01011101110001011001111010100001
01010010001000001010111110011001
11011111110001111101111101000001
01110010001000001000111010111101
11010111010101111101111100000001
11011010010100001001111000001001
01011101101001111101110000100001
10000010001100001000111000011001
01011100110011111101111100100001
00010010011110011001111110110001
11011110010001111111111101101001
10010111100101111110001101101111
10101001110110110111010011110000
10010010100001011110100100001101
00000101110010000000001111110011
10010000100110111110010000001101
00100101010110001011010110010001
10111110100101111101010101001001
00100001110110100001010111110011
10000110101101101111110100001011
00110000110110100001011111011111
10010110101100101111011000001111
00110001010010001001010111110001
10000010110101010011100101001001
10100000110110100011101111011111
10000010101101011111100100001011
00100000110010000011001111010110
10010011101100111111110000001111
00010100010010001001001111110000
00010101110110100000010010001000
11100110011111111010111100011010
10110101010111110000010111001010
11000000001110111010110001010000
10100100110100010101011010001010
11101110111001111000110010100001
10010101010110111000010110101000
11100100011100001000110000010000
10110101010010111000000100101110
11101100001000001110110110010000
10110001010011111101010101001110
10101100011100001000010010100001
00010111110110100010000111101101
10100001011010000111110010011010
10110011110011101100010111101110
10101100001100000111110010011000
10100011110111111111011101001110
10101101111100011010010010111001
01010111001100101001011010011101
00111001110110010000010010011001
01110101001101101100111011101100
00111110110110010010010110011101
01110011000100001001100010101011
00010110110000010011110010011101
10000100101101101100110011001100
00111001010010010000000010011001
11110110101101100101110010001101
00111110110010010010010110011101
11110110101101101101100101001001
00111110100010010011010110011111
11000101001100100101010111000100
00111101011110011010000010111001
01000110001101101001111101001000
00110001110010010000000010011111
11010010000101001001100101101000
00110000100001110010001110011110
10110110001101101001011100001001
00111010110101101001010000010001
11100010001101001001111100111001
00110010110011101000010001111001
01100010011011010000110100110000
10010110100111110010010001111111
10010010001101001001011101011101
00110010110111101000100111010101
11010110001111010001110100111001
00110010010011101010000101010101
10010111001011000001110100111001
00000010010111101010100100010100
10011111001111011001110100111101
00111000011010101001010101110101
11000111001011010001111100111101
00100000010010101010100101010100
01001110001011010011110100111001
10100010000110101010100100111100
01100011110100111011000110110000
11000110001001010101111011010011
01100001010111011010111110010100
11000110101001111101111101101011
10110101011001011001111110100110
01011100110111111110111001100001
00100011010000000011101111000000
11000110111111111011101001011011
00000010110000000010001110000100
11000110111101111101111101011010
00110000010110001010111110010100
01000110111001111101111111001001
00100110110000100101111101001000
11010110011101011100101101011011
00000110010000000011111000001000
01000110011111101000111101101011
01110111010010011010111010011001
01000110010011111001111111101100
11010111100111011010111100001001
00101010010111101111001010101111
11110011100101011010110100001111
00101010010111100111000010110111
11111000100101001110100101001111
00101100110010100011000011011110
11000110100101011010111100001101
00110001011111101101000111111110
11110110101101001111110100001111
00011010010110101011001010011101
11110100101101001101110100001111
00111010010110100011000010011110
01000111101101001010111100011101
00011110011110111101001111010100
11110110101101001111111110001101
00000110010110101011001110011100
01100101101101101101110110001101
00111010100010010011001010011111
10001100000101000000011000010000
01110000000011010010001101001111
00000100011001100110100000111111
01010110001001010000001101001010
01110001011011111110100110011110
00011110010100010111010001001000
10000101001000110110100010111111
00010110001000010010000101001000
11110101001010111101110010111111
00011110011100111111011101001000
01111001001000101101111000011000
00011110110101110001000000001001
01110101011010111111110001111010
01011110001010010111010011011001
00011010001101111001011110011100
00111110110101011011111100101001
00001010001101011001111000111001
00111000101011110000101101001001
00100011000011010110101101110010
11011000110011100101110000101011
10011011001011010010101000110101
11000101110011101101110101100011
10111111100110010100010010110100
11010001100111101100100101110011
10001010001111011111111101100011
11000100110011110101010100100111
10001010001011010011111000110001
11010010010011110001110101010111
10101011001110010110010010111111
11010011010000111101110101100001
00001010001001000011101000100011
11100000110000110100110101001111
10001010001001000111101000111011
11010010010011110011010101111100
10111001001110001110110000111111
11010111010110111011110110111100
11111000101010101100110001001010
01001110010101100111110010000001
00111011001010111000010010011110
01001000110101101001110110110001
01010100111010110001011011001100
11001011111100101001100011110001
11110001001110111000110100011011
01011010010101111001110110000001
10110001001010111001110100011110
01111000110101101000110000100001
10010001101010111000111010011101
01000001010101101000110000110001
11110001000110101101110100111011
01000100010100101011110010110000
10110011001110111001011100011110
01111000110100101001110001100001
11011011100010111001011101001101
01101001110110101000110110110001
10011101010111011010110111100101
11001001110000011000110101110001
10011100010010011000011011101101
11001001110000001111110000100001
10001101110010011000001011100100
11101001011010111110010011100000
00000110110010001010110111100101
11100101110000000111110110010110
00110110110010001000011111000101
11100101110101101111110000110011
00001010110001011000011101000100
11101100110111101111000001100011
10101110010000000000001011000111
10100000110011000010101101110010
00100101110000000010010011100011
11000110101101100111110100011010
00100010110001001010100101100110
11001100100001110101000101111010
11111001110010111100101101101010
10101110101111100110010011110001
01111001010001111100100101110000
10101100101111100110010001101000
11101101010011110100101101001000
00101100101111101110110001111011
01110011010010101001000101100010
00101110101111100111010110011010
01010011010010111110100101100010
00101100001111100110010010011010
01100001010010110010100101100010
00101100101111100100010011111010
00100011010000100101000101100000
00100000001010000010011110011110
01110011010011000000000101100010
00101100001011000110010010011110
01011011010000010000100101000000
00100110101111000100110110110110
10111011011110100100010011111010
11100010110101010010111100011101
01011010010110010100010000110001
00101001010011101000101010011110
01010001011110001010100010110101
11001001011000101101011101001110
11011100000010010101011001101011
00100001010111101001000010101010
11010101000110000000010000111011
00100001010011101101101110011100
11011111011110000010010000111111
10001011010011101111110110101100
11011100100100010110111101110101
00101001111010101100000111111101
11011111000110010010111000101111
00101001010010101111001111101000
10011101000110000111011100111111
00101001010110101111000101100001
01011011001101001010110011111001
11101011110011110100001110011110
11110000000100001010110001101111
11101101010001101101011110000101
11011000001001011111111001101011
11111000110011101111000010010001
11010100000000011001111000001011
11110001010011101000101110001110
11011011000110011001110000101011
11100011010001101011101110000101
10010000001100001011110010111011
11011111010000101101101010000101
10011001000110011101011000101111
11011011110110101101000001100001
10011100000100011001011000001111
10101001010010101001010111100001
10011100001110011001010010001001
11111001010010111010110110000110
00110111011110000000010110111101
00100001011110111000100100010010
01110101011110011001010110110110
01100000011110101010100000010100
01110101011000001011010101110111
00001000111001101000101010011010
11010001010110011000010000110101
00000011011110001010100000000000
01110101111110101000010010110101
01110011011010101111100100001100
01110001111110101000010110111101
00011010011100101111100010001100
01111111110010111100011100110100
00001011111110001101100001000000
01111111110110101100011010110100
01011011011110101111100000001000
11111101111110101001011010110100
01101001011110111111100000001100
00100100011100101001011010111000
00011011111100010101110010100000
01100100111001101001111010011000
11010110111000010101110101011000
01010010111110101000110110100001
00010110110000011100111101010010
00000100101001110101011101011000
00111101111101011000000001101001
00000110111001110001001100111000
00011010011111110010000101001011
01000110001001100001111100011000
00010100011011111111011000101010
01001100111001110100001110011100
11111111101010011000000101100010
01000110011001101001101100110000
10011100101011110000001001011010
01100010011001101001101100110000
00111100000011110011011101110010
10101000001110110111001011010010
11111100101011001010100001111110
01010100011010110010111010110000
11111000001011111010100101011110
00110100011110100011100011110000
11001000101111101110101101011100
10111001001110110101001000010010
01111100111111111000100001100100
01011101011010110100100000110000
11111010001011111100100100011110
00111101011010010100010010110010
11001010011111111100100000111000
10111000001110010100011010011111
01111101110011011000100001000001
01111101011011010100010010110110
11111110010101111100100101001000
00111101001110010100110010111010
11011111010101111001110100000001
01101011011011110101000111010100
01101011111110000001000001111110
01010011001110001101010110110100
01101011111110001101100000110001
01111000000110010111110111000000
01101001111011001101000010011001
11011011001011110101011010010101
11010011011110001101100001111100
11011011001110101101110010010100
11010011010110001101100000111001
11010111001110101101110010010101
11100001011110101000100000111001
11001010001011111101011101010001
00111001110110011111000001111100
11001110001010111101011010010001
01110001010110001000100000111001
10010110001110001101111001010101
00100001010110111000100001111001
10110101110100111111111011001011
11101100101100010101011000111001
00101000100101110001001001001011
00101100110001010010011011001000
00000101110101001011000010111011
11100111001001010110001010001100
10110001110100101010001110111011
11010111101000010110011110001010
11110100100100101100111011001011
10101100100100010000011011100001
10110100110000111011001111001111
00101110101100011001010011000001
10101100110000110111011111001000
00100000111100000011010000100011
10010101110000111011001110101011
11000111101100010110111010001010
01110100100100101010010011001110
11010011100100010000100011100001
01101001001011110010010011010110
00010111101011001001000101110110
01011000001110011101111010111101
00110011110111101000000111010001
01111101001110000000111000010101
00010011110111111001000000011001
11001100101110111100111000011101
00010001110010001011011111111101
11011100001110011100111000111101
00110001010010101000001111101001
11011101001110010000110010111101
00010001010010001010000111010001
01001010101001110001111001011001
00110001110010011010110111111001
11001100001100000101111010111001
00110001110010101000101111101001
11010101101110000010110010111001
10110011010010110111111111011101
01111100101100011010101111011011
00110101111101101101101011111101
01101000110100001110011010011101
00010001001001001101001111001101
01111000111100000110000010110101
01010000001100001011001011000101
11001100100100010010111001001101
00000001110001101101111011101101
01000100111100000010100010011111
00010001001101100101001111001111
11111100101110000110010010011111
00010011011101001111001011100101
11000100110000010010101000010001
01000000110011100100101111011010
11010100111010000011100010011111
00010010001001101111011111101101
00100000101100100111011010011011
00010110100100010001001111011001
00011110111100100011000010010001
01000011001010000110101100001110
00000111110001000100100111110000
11010001001100010111101100011111
10100010101000110101101111010011
01111011111000001011110000101011
10011000011110000010000011100001
11101101001010000011111101001010
01111011110011100010100011110000
11010111001100010111101100011010
00101110000001110101011111000000
11001001100100010101000000111011
10110100000110100110100111110010
00010111010001010001000000000000
01111011110011100011000011100000
11101111001001010111111100011111
01100010110101101000111111110000
00011011101001000100001010101001
01110001001010110000010001100010
00001101100001010001010111011010
01110001001010111101000111111010
00011101110000010001010111011100
01111011011110101101100111110000
00011111111001000101100010011000
11111001001111111100010100101010
00011111100100010001010010100000
11111011001011111101110100111010
00011101110001010101010010111101
11110011001011111101100101111010
00111111110001110001010010110101
11111000100100101101010100101110
00011001100100010001010100110001
11111011001001111101110101111110
00111100110101010001010010100001
10011000001001111101001101001010
00111101110000010011010011110001
11111101011011000011100000111000
00111110001111111110011110000100
01101101111011100110101000110000
00011010001101100110000110001100
00101100111001100000101000010100
10001010001101101010010101101100
01111001011001010000100100110010
00111010001101100111000010001100
01101001011001100110101100110000
00111010001101100100011110001100
01101000011001110110101100110100
00010010001101100100001111101110
01111001011010000101100000111010
00111010001011110110000010001100
01101001011011000110100100110010
00111010001011100110000010011110
01101010010001000110100100010000
00000000001111000010101111011110
11010011010111011110000101001111
10001011011111001101011110010001
11010011110110011100000011000100
00001101001000000101011110010001
11000011010010001101011011000101
10001001001000000000001010000011
11010010110110001110100101000011
00101101011001000111011111111011
11010010110110001000100101000001
00001001101001000111011010111011
11001010010010001101001001000000
00001001101001100110001011101001
11000011110011101111100101000010
00001011001000000111011111111010
11000010110010101101100101000001
00001001101001100111001010111011
11000010110110011001000001000000
00001001101100100001000011101011
01010101011010001010110110111111
11011110001100011110010110001000
00111100001001111100110111001011
11111110110100110111010010101001
01000100100101100000111001001001
10101000110111110100001111111110
00110111101001101000010110001011
11011010100100010111010010001001
10001110001100101101011111001001
10101100110111110001010011101001
10000000101101101001011101001001
00010000110110110100000111111111
00101011001100100000000111001000
11111001101100010011011100011001
00100010101101110111011111001001
11111100110001110000011001101011
10000100101101001111110000011111
01010011011000110001011101111110
11010110001101100001111000000000
01000011010111000111011110011111
11000011101010100001001000010000
00100011010111100011000110111110
01011110100111100000011000010000
10100001011111001111100110111110
11111010001111110101000000001011
00101001110000100000000011100101
11111000000110110101011100011101
00101000010111101000000011100111
11101001100011110111010100011111
00101000010100101001000011110101
11111001101111110010110010111111
11011111010000011101011010001101
01010111101110001110110010111111
11011111010000000100011110001110
01110011100111001010110010111111
11011111110000011001111110011101
10011111100110010011000010000011
10100011011001110111111110001110
01110111100100001010100011101011
11000101000000100101011110011011
11110010000110111100110111101100
00111000101111000001000100110011
10101110100011110101111101000010
10101001100110111010010011100011
10000110110001111011100000000011
10100111101000000010011110001010
01110010110111101011100011100010
11000111100000010110011110000110
01100101010111010110001101100110
10001001101100110101000000011000
10101010010011111101101101000010
00101101111110001011010001100011
10000110010011000001101001000001
00100011111010010010111010001110
