01100101011111000011101101111100
00000000010111000001111011010001
00010011101101011011101101001111
00100111110100100010100111101101
10111011100101110111111100000101
01111110000110100000000010011101
01110100100011010011111111011110
10000111010101001010011001111000
00111001011101101010100010001001
00001110100001111000111001111110
00101011111100100110110000100100
11111010101000110101101100011101
01110001001101000100111111011110
00101101010111111110110000001101
11111111100000101110101111111010
10111100011111010011100100001011
10111110111000111111010100110110
10111100001101011011100000001001
10010010111110010110110111001010
11100001110111010001010111010011
00010010100001001111100101011001
11100101010100111011110110000011
00111011010111100011010000001110
01101001001101001010001111010111
10100011100010011010110111100010
10100101010101010001111001011000
00100001011100001010101001110101
01010000110110110001111110001110
01101111110110010011111100000110
11101001011111001010001101011000
01001001001010110101101101100100
01111000110110000001010100101001
11001101010000010101101101110001
00011011110110000011001001101001
11111101111111010001001101101101
10101000010100101010111001101100
11100010110010010010110010100110
10000111011111011101001010001111
11000010110011001010110000100010
11000111011110010101111110001011
01000001011011001011110000101110
10000101011110010101010100000110
11000011100010011011110010100010
01000111001100011101000011010001
11000011100011111010100000101000
01010111001110000101110100000011
01000111100111011111100000101000
11010111101100100111010000100110
10000011100100011011100111101000
01000111101101011101001011110100
00000111000110001111100001101001
01010011111100100111101001110000
00000111100101000111100001101101
01000111111100101101111001100110
01101100110010010011101001110000
00101000110100000000011101111000
01110001010001010011111011011011
00100110110111010100010010111100
10111000100100000111101001100101
00110100011101010100010000011101
01111110100011010011111110110110
00001100010100001010111101101001
10111101111001011011111010111011
10101100000011111000011001101100
00111000001100101110101100110101
00111000101011011000010110011101
10011010001111000011011010110110
10011000000100101011110000011010
00011001000001001010111111101010
10101100000011010000011000100010
10111100101001101010001100110110
10111000001001011011001100001001
10011001011101001111100010101001
01011110110110010001110010101011
00001001111100011010100001110001
00011010111000100001110000001000
11101010111110110011110111000110
00101011100001001100111001010100
10001110010000001110011011100001
00000011101011000001111001100000
00111100001101010100001101110101
00010010111011111111100010000111
11111110100110010111111101010110
10110011010101101010001001010011
11011110100011000100001111000110
10000011001000001111100000001011
00011100010001101000001100011000
00001001001001111110101001101110
00011100110101100000001100011110
10000011001001111110011101110110
00001000111100001011011110111011
11111000000001011011100001101001
11001100111001011010001110111011
01111000001100000001100111101001
11001110011111110011011110111011
11001010000100000001100011001001
00111110010100000101001100011001
01011001101111000011001100101101
00001110100101100110101100011010
01001110101101001000101101111100
00011110100101010110101110001000
11011011101100101010001101111100
10111111100111000111111001010100
01111101000010101110101100001100
00011100100101001110101101011100
11011101111100101110101100011100
00011100000100001110111101010100
01011101111010101100101100011100
00111100010101001001001100010111
00000001100010001010100101000111
11111110101011010011101110010110
01101110010100001010001011100001
10001111111001011010101010111011
11001111110010100000011011111100
11111100010100000001101100011110
10000011001000101010101101110111
01111111011110111010011110000110
01101110101001101010001011111110
00011011001000001110100011101011
01011111100111110011000110111000
01111000011101100110111000000110
00111001011001111101100110000011
11011010100010110010110011000010
10111101001000101101100010011010
10001011010010101100100011000001
00011100101011110101011010101010
00101100001111110111001100010100
00010000101010001010001101100011
11111110100000011111111110010111
00100100101111001010101101110110
00110110101001001110001000111001
00100110111111001010001101100110
01111100110111000100001101010010
00011100101100001010001110010010
00111110100011101010111111000110
10100100001100001010011001110110
00110101011001101010001000011001
00000100101011010000011110100110
10111011111111011010110101000101
10011100110010111011110010000011
11011011111111001010110011100010
10011100100010110001110010000001
11010011111011011010111010100010
10010100100000010001000111000011
00111010100000011100011011011101
10111101000001101010101101100101
11111100101000111111011000011001
01111110100001010010100011101001
10001110011111100110110010110100
11111110001100000001001110001001
01111110010000001101000011011001
10101101010011101110011000000100
01111101001000101100001000011101
01011100101011011010101100110110
10101110111001110111110000111100
11111110101001011001001101011001
11011100110110000001000011010010
00101101010010100101110101000011
01011101100000101100010011111000
01101100001011111110101111100110
11011111101001101110110000011100
11101110101011001010101100011000
01100010011110000011111010110111
10110011000001011011000011001001
11000100011001010011101100111111
10010010001100011011100101101001
11000111011011010011100000110011
00000110001110000101011001011001
01100110100011000011110110010001
10100111010101011111000011111001
00110101011101001011100000111001
00000110101110111100101111001101
11000111001011010011100100110010
00010110001000001000001000011000
00110110100110001111110001010100
00101111011111101110100111111110
01110111101000000111100010010000
11001111001111100100101101011101
10101111101100010111100100110010
01010111101111000100101001011110
01000110000001101010011000100010
00111111000001110000010010111000
10101101010110110010011100100100
10111100000001101100111000011100
11111010000110110000011011100100
10101010010001011100010010110001
00101110000101100100001101110110
00111010000111011010011100111101
11111100100101110101011101110110
00111010010111011011101100000101
11101111010010110001010110110110
00101100000111010010011011000001
00100110000001101100011110110001
10101010100101110010001101000001
10110100011101100001001100110010
10001010100001111010001111000001
11010111001110110001011100100010
10100010000101001000000111010000
11010010100000110111011111100110
01100010010111010101000000101111
10111001111000011010101101001001
11101111010001110001011001111100
00101001011111000110111100110011
01101111110111100101011010001001
11010110110100110001011110000110
10100001001101101000101001111110
01001000000001101110101111110100
01001100101110010101000110001111
11001111100010011110111111100010
10101111010010000001000001101000
01010000000101100101001100011100
10100101000101101110101110101110
10101101010001101011000110010010
00011111001100001101001010111110
00001011011111001110100111000010
00111101111010111101011000111000
01100100110010000001101100001001
10100111000101000000011001100110
00000101011101101011101110011001
00000111101110011010111110110100
00111010001100010111001001010101
00011010101100111011110100010101
01110001001101010011101110011111
00100111010101001000110101100111
11110111100000111011110110101001
11100101000111000000111001010111
10101010011110100110010110100100
01011000101111110101110010011111
00100101010101001010101110001011
10000101110101111100111001000110
00000001101101101110001101100110
11000000110111110101010110011011
10001010100111010110011101000110
11111001001100011011101001000001
01000111011010010000111110110111
00000100001101000000011011001000
10010101101001011000101000111011
01010100110100000010011101101110
10010010100111111101010001100001
11100001000011000000010011010111
11000110110010010001101110110010
10100101010100001010111001101000
00010001001001001000101000011011
01000100101111110100011000101100
10110110100111111110111001000101
11100011101011000100011110010111
11000011001011010001101000110010
00000100010100001111011001111000
10010001010101001001101010011011
11000100111110010100010110101100
10110100101011101110111001000100
11100010100011110100100110010111
11000010101111110101110001010111
11110000110110110010001000001001
11010010101111100100100001000001
00110000101111100101001010001101
11100100111011100101110000010010
10110100101111001011101010001001
10000011101110101100000101000001
10000001110011110101111011011010
10100011011110100100011001010111
10010010110011110101000010000010
00010001101111111101101001000110
10010010110101111011001101110010
01111001010010111000000011100110
00111001010010011001101000100010
11110111110010111001010011100011
10110101000000001000011001100000
01111101011100101000001100101101
00011000110011011100111000100110
10000110000100011011011111001111
10001101011111011010001011100111
00011001001000011110101101100100
10011101100000111011011010111010
10000011011110010011111011100110
11000111110010000001011000001000
11100111100010010001010010111000
10100101000100001010001001110110
01000001010000000000101101010001
01010100110110010111010010001110
11000111100010010101110011100010
10000111010100001011010001001000
11100110010111010001001100111111
00100101011011001010100110010011
11101100010101010001100010011001
01011101101100001010110010111110
01000001111111000001100011011001
01000100110000001001010000111100
01011001011010101000000011001100
11011001101001100111110110001111
01000001010011100101111011001100
11011101100010100111010110001001
01010000100011101101001001001100
01011001010110110100001100001000
01010001011110101011101010001110
01011100001100011111110010001101
01010001100110000011101011001001
01010101000000101000011000111000
01000001010101001010100010001001
01000000000010010100011001101100
01111000001110010011101000011111
01111001001000011010011000111101
01100000010100000111101001011111
01100101010011001110001000101101
01010100100101010111101010011111
01100001011111011110001101101101
00110110100110000111100101010100
11000001001110111110101011010010
01010111111100001101010111010100
10000100100100111011110001010000
10000111111101001100010011111001
10010110100101110001011000001001
01100100100111000101100101010101
01110001111100001011100010000110
00110111100010000100010011010000
10100101000000001011100001010001
00000111011000001000000001011000
10010110100101111010111001001000
10110100000101110101101101010101
01110001101101111101100011010111
11010111100110010101010011110011
10100101010010100011100011010011
00000111101010001000000011110001
11010100000110101010100010100011
01110101111011111100111001000000
11110111100011001011100000100011
00110010100101001111101001111001
11110100100100111010000110011001
00100010010100010011110011110100
00100001001011111000101011001101
11110101111011001100001011001011
11100110100001101010110001100110
00110001001101101110101001010101
00110100101111110001100010111101
01100110100110010111111100110110
10110001011110001001101001001001
01010001111011101110010011001001
11100110100010110000110010100110
10110010111000001110110001010001
10110110101111111001100010001000
11100110100010000001111000110110
10110011000110111011001001011001
00110000000100110001101101011110
10100001010001110110100101110110
00110000011100101100001001011110
01100001110001110110001101100110
00110000101000011100101001111010
11111001010111011111101100001111
01110000001001000001100101111110
01111001011100000110000110100111
11000010110010011001110011101010
11111101000111000011100001100001
00001000011001001000000011111010
11011100100111110111110011101001
10101010011000010011110010001011
11101100101000100001101011111011
00001000011111010111100011001111
11011100101100100011110110111000
01001001011111000100100010101001
11011110101010100001010010111001
11010101001100001111101010001010
10000110010010101000000000111100
10110011011100001010111100011110
00000010000011111000100010111100
11110010101100010110101101010110
00010010000001110011100000010010
01111011110000001110110011110111
10011110100010010101100000101010
10011111110010011110110110110000
10111111001000000001001001000011
11101110011000010010110100011111
00001010001001000100111011000111
11111010010000010100110101110101
10011101100011010101110010011011
11001110100001010100111100110110
00011111101111010111000010001011
11001110100011010001101110010010
00101111100100000111100011000001
10000000011001001110100001001000
11000100101100111110111000011100
00010010011111000110110011101110
01100100101010001111110011100101
10010000100001111110111011101011
01111000001111111101100101101111
01010000011000001010100001101100
11010100101000010111110010011111
11010011100010011011110011001010
11100100000000001001111001110000
00010000011001101010101000011101
01100000101011110101011110100110
10111011011101010010110001010001
11011010101000111001011010011101
00010010100011010111110101111110
01111000000010001011111000010001
00011000010001000111111111111101
00111010011011010011011111100111
00111001101000010110010111001011
10111101000000001000111001110110
00111001001000001110010001001101
11111101000000111000011100111110
00011001101010001110110001001111
01111101000010101001011100111110
11101110110110010011111111111001
00101101111110010111010111100111
11101100010001000011101110111001
00111101111110010111010111000111
11001101100011010111101110110011
00111101111110010101110111000111
10001111011101101011111100110010
10001010111100110111000111010011
00001111001101001011101110111101
10001010111100110011000111000010
11001111011111001000001110011111
10001110110100101000110111010000
00111011001010000010010011010101
01011101100011000101101100110001
01101101010010010001001100111001
10011001011011001010101100000010
00111111011101111011001110011101
00101111101111011110101101110110
11001111111011010100010001000010
11111111100000100011101000001001
01010100001101011001001001001100
00011001010110101111100100100010
11111100110110111111011110111001
00101001011011001010001111100111
10011011101011001010010001101000
11011111100000100011110000111001
00110000011101101100000000101001
11011010101010110101110100010110
11111111111101111111010010101110
10101010011000111001000101110110
00001100001101110100001101001001
01011110111010100101011000111111
01101100100011110110011111001100
01001011011101101100111001010110
01111000100001000110011101001101
10111001111101111110011110010011
00001000010101110100011101001100
11011010111011100100111100011110
01111100110111000101011111001110
10101001010101101110111101011011
11111001011001001001011111101101
10101010010101011110110110000111
10001000010101101100011100100100
10011010111010100100011101011010
01111000011111101001011110101110
10101000010100111000010101000001
11111001011101001000001110111110
10001010110000011011010110100000
01100001001000111010111101100001
01110000111111010101001111000111
01100111111011010111111110110010
11110111110111000101000011001001
00011101101101000101001101010011
11101111110101110111110011001001
01100101010010100001011100001110
10000000011111010010001001001010
00100011101011001010101100000101
10000110110100101010011101111000
00000001011101001110001001000001
11000110110110110000111100111000
11111101000000111001001111001110
10111101010000111010110001110100
01111001001010001010001011101110
01001100110100001000111000111100
10001111100000011110011111100010
11011110110100110000010001101000
10100010001100100111001011100100
10110010111100110011000010011001
11000111010110010101111010100100
01100010001010000001111001001001
11000101111011111000101011001011
01000101111011010110111001101110
00100010001100101110101001010100
00010010101100111011100110011001
11000110110010010011111110100110
10110111000000001011001001011001
00010001010011111000001010001001
01000100110011000100111001101110
00110110101100101010101000000101
10110010101101011011100010011111
00000110100010010101111011100110
10110111000110001001101001001001
10000001000010011001011011101011
01000100001011000100011000101010
01110000011111010110100000110001
11010111001010000101100001110111
01110001110110000110100010110010
01100111001110101101001001000111
01110100110110001011110010000101
01100111001010001011011011000011
01110010011111010000110010110011
11100110101000101101011001110110
10110000000111010010110010110001
11100110101111111011011000110111
01110000011010010010110000110101
01110110111011100011010010000011
01110010011110010010110010110110
10100110101000011111101011110111
11010010010111010010110000110010
11100110100011000111011001110010
01110011110010011011110010110111
11000110001011110111010011100011
10101111111001011010110111011010
10100101011101001101101001101000
00001111001101001110100111011111
00010001111100111111101000101000
00100110000111011110110111110010
11010001111110001011010101101001
10000110000110111100110111010001
10110101111111100110110010111101
11001100000010100100100101010001
00010001111111100111001000001101
01100010100111000111111101010000
10010101111110101111111000111001
11100010010110111001111111010100
00010001011101100100010010011101
01100001000110101101101001010101
00010001111110101101011000011000
01100010010110011111111001010101
00010001111111100100110100001000
11100010100110010011111110010111
10100110001101011011100001111101
00001000001000011010101101010101
01001100000001111000011100011100
00001010011110010110101101100110
01001110011010010111110110011001
01100010010000000011111011010110
01100111000001101011100111001111
11001000000001011010101001110110
00011101001100010111100110001101
11001111110010010011111111000010
10001111010100000011011001111001
00000010000001010011111000011100
11100001000101101110001111011111
01000100010101000011001000010101
01000101001000111110001111001101
11011010101111010011110011000010
11011101110000101111110110111001
11111100110011111001001110111111
11101101010111011110100111100110
10101111111011111010111110001010
10011101010110111100111101111110
00011001101101101100111011101010
11011100110110111101111110101000
01110101010000100011001010011111
01100111011001011110011111100111
01100011101010101011110011101010
11111101010010000001010101111000
10001001010010001100010110100010
11011110101010000001110010001001
11110100010000110001000010111100
11100011011011001110101111000100
11100000100111110101000100100111
01100110101111010101000110011001
11001111100111010101111100100010
11011111101100100011000010011001
01110101111101001110100010011110
10011110010100011110100000111100
00001101110000001010000001011000
10001100000000001000111001011100
00101101011000101010001001111111
00001010010011010100011101110110
10110010100101000111110010010101
11111100100100100111110110011101
11001000100010010101100011110100
01011000001111010101000110001001
11001100110010110001010110111010
01101111010011000011000011000011
10101010011101000110111011010101
11001110110100100101110010011111
00011000100111000111111001000110
11011011110001111011100111011011
00001011010111100001110001000101
11001011011000101101111101110110
00111101101100111010111001011110
01001010110101011011001101101011
00101100101011000011101100110110
11111011110100001011100111011011
01001101010010000011000010111010
10001001001010000000110100001111
10111001111010110010010011001001
10001110001011010100111101100110
00111001101101101111111001001101
01011011111111011101100110100111
01001110110111100111101100110100
10111011111100101111100100010011
11001001110110100100010111100100
00101100000010000100011101010000
10111001111110111010010110001001
01101110110111010110111111110110
10101010001101100110111000000100
11011111110101011111000111010011
00110001011000011011110101000001
10100010101101011111110011001100
10000011111111000011110111000110
11000111111100101111110011001001
00110001101101001111101101001101
11100111111100111111000111001101
01100001101100011011110001001011
01010110010100011011110011111000
10000011101010001011110011000001
11000111110100101001110011111000
00100001011101001010110011001001
01000010110110110101010010011100
11100111001100111011110101001011
01000011011010011100111010111100
01000011100110011111110011000111
01010111110100110111000010011001
11000011100100010111110011101001
11110011110100100011100001011001
10111000101101110111100111010001
01111001110010110001100100010001
01101011110100010011010111011101
10111101001010110001111010000101
11001011101000011000111001011011
10011100100010110011010010111100
00101000000101100110101101011101
00111011111011110101101100010010
01101110110110010011010110111110
10101001011110101000111101000111
01001011011001001000001110111011
10001100100000111110111110101110
00001000000111100110111100111100
01011011111011010101001111000110
10101110010011111111001110111110
10001011011110101011101101000010
10001001010100001000000110111000
11001100001010101010010111100111
00110000001101101111101001010100
01110010110100111011000110010111
11100110010010010011111111100110
10000011000010100101101011010000
11010101111011011000001000010011
01000111010011111100101101110110
00110000001100101110101001010100
00010011110000110111000110010011
11000110100010010011111111100110
10110111010100001011101001010011
00010101010011001000000010110011
01000100000010100100011001100110
01100100101100100110011100010101
10110011101101110111101011001111
01010110101010010011111001100110
00000011110000101011101001010011
00000001010001001001001011100011
00000101000010100101100001100110
00111001101000001110110011110100
11011110001000011011100000101011
00111101011010000010011011110101
00011000001011001001011001001001
11111111110000011011001010111011
00100110010010010010101001101010
00111001010101000110011001110001
10101101101011110011000010001111
11011100100111010101001010110110
00110101011101001010000101001001
11110101100011001001000110011000
00100101000111001000001011111100
00111001100011001111111001000101
10111111110000100011001001111010
00111001011111000011001000000101
10000111100011111100011111011100
00110101010111101011101010011101
00000010101011000100000110011100
11000000011111010110110010100110
00011110100010010011110000101000
10011000011101011010101001101111
00011000000010111100111100101000
11110000011010010011111010111010
00100000010011000100111101101100
11010010101110010110110011100000
10010101100010101011010000111001
00000000010101000110101001110110
00011000001010110101100100101001
10110110100011011011111000111110
00100001010001001000000001100010
00010011100010001110100001110100
10011111100000101111000000111000
10011110100111000110100000010000
10011011001100011010101001111010
00111110001111001010100100111100
00001001001010001100101101111110
01000100101110111000000000100011
01010000010110111100100000110110
01110010110100110110010111110111
01110000010000110101100000110111
11110010101100111110010111101011
10110001010000111000000000110110
01011010101110111101001110111010
01111100011111011101100100100111
11111110110010111000010110101010
11111101011001010000001001100110
00110000001001101000000100111111
00111000101101010110000010100111
10001110011101110000010110101011
01111010001101111001001011100111
00001110101010111100010110101110
10111001101101110011001101100011
00000100001000101000000110001001
10100001101101001011011011100011
01011001011011000101100011110101
10011100101111000011111010011001
10010011100001011110110010111001
10010100100100000011011010011001
10111111111111000110110110110101
01011110101111110001011010001101
01011111100011001110110011011000
10001110000001101010111001110000
00010011001101001010100001011001
00000100100110110000010010000100
10110011101110010110110001010100
10110010000011110000000011000001
01111011111011001101110011011111
01001101010110011100110010010110
10011011000001011101110011011011
01010100000110011000000000000100
10111111101011011111110101010111
01111001010111111100001001010101
10000111110011101010000110100110
11110110001100011011010001101011
10100100011011001000000100111110
01100010101100010101110101110011
01110101011111001001000110110110
10100001010110011101010101000010
01000111000000001110010010000010
11000111100111010011010001001011
10010100001111011100100100100001
01010011101001010111100011101011
11100110110011010011010111100010
01100011010011000001100001000011
01000111100010000111010011001001
11000111100101000110101010111101
00000001001001000100000001001001
11010111101001110111001010111110
00100010101101110111010001100101
11100011100001100011000001010100
01110010100011001110111011100100
00110111111010110111110010101001
11010010100010001011110011100000
10110101000000011101010010101001
00110001011111001010100010100011
00000111101000011101111010101001
11100011110010010011111011000001
10110101111000110111100011101000
01100001011101000110101001110101
00010001101001011111110010001000
11100111111110010111111010100111
10110111001011001000000000101001
01100011110010010111111011100001
00110111011001011011100011101001
11100100010000010111001010110001
00000011011000011000101101001100
00100111111101010111101000111111
00000010111111011010101101111100
11001101011111000000100010110000
01010010010110000110110110010000
11000110110111110101010110111010
00110111101111101111100110000001
11110100000001110101000101101000
01110000001100010010000110100111
00101010101111000101110000011011
11001111110101000101110111011001
00111110100111101001010000001001
11101011100001101000111111010111
00111000010101100001001000010101
01001000101011110100101110010111
10100011011101011001111010010001
01101010110111000001011001101100
01010010101101110101011001110101
01100010110111100101100110000101
11110110110000110101011100101110
11100010011001000101100101000011
11101001011011010101011010111001
10001011100011000001110001000000
11011001100001111001001000100101
10011111100000111001010110001101
11011011111110110011110010000001
01101110101000100000111010001101
01111111111111011001000010111011
10001010000000001000111101110000
00111101011101101010000000111111
01001010000000010001010111010110
10011111101110111011110100100110
01101010000000111001000101010000
00011110101101001110000100111110
01011000101111101011000101100111
10011110100000101110100100011010
01011000001010001010101101101011
10011110101100101010100100000010
01101001001111111010101001011110
01010110000001001100110111111010
00011011111011000101100000100010
11111100110000111100000110011000
10111011011001101100111000100110
00101010011110100000000100100100
00001010101011101100111000010111
10010111101001010110010110111001
10100001101011111000001001010000
00010000001101101100000000110100
00010000101011110111110010000011
11000111100010110101110100100110
10110011001001000011100001000001
11011011100011001111000111111100
10100111100001001011101111110011
10001111000001101000000000100001
10001110001000011011011011010011
00011011011110010000010000100100
10001110000000101000011001000000
00101010010101111101011101001001
11111001111011110100000110100011
00100011000010000001111101100100
11111011010001101111001000010011
01001011010110000001011010110011
11101101110011000111011010001001
10100111010000111100000000101000
10101001000001100010011001000010
01100000001100010100001000000101
01010010110000111111000110001000
11001111110110011101011010100010
11101111110000101001110001101000
01111001111110111101001011101110
10111111010000001010111000101001
11101011011000010001010010101001
01111110100000001000111001101100
00101011111100011100111010101011
00011110110010011000111000111101
00100001101111100011000101100000
10110011110100010001000110011011
11001110010010010011011111100010
11111101111010000011001011010011
11000001000001001000001111110011
00010111110110010011010000111000
00100100011101100111001100100101
11110011111111010011100100001111
11111110100111010011011101100110
10100011110100101010100101110000
01100001010001001000000010010001
00000110100100000010011011111110
10110101001100010011001100001000
00000011110010101000001001100100
00110011111100100111001000001101
01000010110011111100101110110110
11110111000100110110001010110101
10010010111001010001000110111100
11011100110101011110000011100110
01011010101100111011000110100111
00011010100011010110101111101100
00011000001000001011001001100001
10101101111001001010110110111011
10101000001011011001111101100111
10011001001100101110110101000001
10011000101000101010011010010111
00100000010011000110111101010100
00010000101001000111101010001011
01010101100011001110101010011110
10000101011101011010001101101011
01011001001100000111101001010101
01011100010110110011110010010011
11101111110011010011111001000101
10011101010100100010111011001000
00101001010101001011101010011101
01001100111110100110010111101110
10100001101001111010100101101101
11110101001100110001011100100110
01100110010101100111111100011111
00100011111011011000111111100110
01110100000001100011001000111111
00110001011101011010100100110110
00001000001111100110110101100010
01101010101110010101111111001001
11111110100011111001110110101011
11101011110101101010100111100011
00110000011101100000000000011101
00100001100101110100000110000111
10001011101011111010110111100000
11011010101100100101111011011001
00011011011011101000110111101001
11001110110110110100011111110000
11110000011100101010010010000001
11000011110011110101010110000010
00101001011101001100000100011101
01101011101111010010001101000111
01100100100100011001101100011110
01100011011101001010001101000011
01110111000101010011001110011111
01000111010110000110100111000110
00001001011111000010110100001100
11001111001100110001111011001001
00010000001101000010101000001100
11001010011100101011000100011010
01110001110110000011110010011010
11000011010010100100001101100100
11001001101010000110110001000110
11011101100000010011010010111001
11011001101101001010110011001000
11011110000110110111010010001101
01011001100110011110110011001010
11011001010010100001100001101111
00001010100100111100011001011101
11011010010011100010001101000001
10101010011101110111001000011101
01011010110101110011000111000001
11001100001101110011101000101111
01111010111100100001010110000001
00101100100010001101010011011101
00111101001000001000011100110110
00111111011000111110010010011101
11001110001001111000111101111110
00101000011101101110101000011101
11001110101101111011001101111000
11011000000111001001100011010010
01111101111110010111110110001111
01011110100010001111000011111000
01111101001110001110011100101011
01011101110010001100010010111000
11101101001010001110101101101110
01001010111110010010110011000110
11111000100110010111110011011001
11011000100001011110100011000110
11111101000100111111100000101001
10011000110111001111010011001000
11101000010000100101110001101101
01000110110010010011111110001011
11100101010100011001110001111000
00010001011101001010100001000001
01010010100000110101110010111110
00010011100110010111111111000110
11110011010010100001101001110010
01100010110111010111101111010111
00110101011101010011010110111101
11100100100000010111101100110001
00110001011100001001001001111101
00110100110100010111011100011111
00111011011001001110101001110111
10100111111010111001101100110010
00000110001101011011000111001101
11000110001011111101101010000000
11000001000101101010000001111000
00100000000111100100100011000000
11010001111110100110011100111100
01000110101001111001100000000010
11000100100100001010001001111101
00000000000101101110100011000000
01010000110100101111011001111000
01110000010110100110010011100101
10110000010011110101111000001000
01010100001101100010101101000001
01010001101110101110011000111100
01110000000100000110000011000100
10010001011011100101001100111000
01110011110001010111011011110111
10110001010011011001101001000001
11011000000110101100011101101110
01111000110101110111110110010001
11000110101011011110011100101010
11100101010111100100110001010001
10011011011101000101001100101101
01011100010111110111010110000111
01011100010110000011000110001010
11001110111000101110011001110000
00010001100000001010100010001010
00000110000000101001111000110000
00111101111100001100010110111001
10111110000011000000111001100000
11111110101000010111110011111001
11111011111100100010110111110111
11111101010000100111101010111011
01111100001110010101111100010111
11001101110010011110011110111010
00111101011010010001101001101001
10111011001100111010110011000101
10101101000011110000110000001100
00111000001001111111101101011100
01011110110101010101001110101001
11001110110011010011110110110010
10001011010100000001001100011001
10111110100110101001010011001001
10101001001010100100011101010100
01101101011000101000000110011111
01001011111011110111011110001100
01001110101001110111001100001110
11011011110100111011000100111011
01001100000101000101101101110110
01111001011100011101000100000001
11001110110010011001010110011010
11101101001000101100010101110100
10011101001001101000001000001000
01001110110001111100011111100110
11001110110010010111111110101110
11011110101100001001110001111000
00001100011001011000001110101011
01001010001100011101111100111100
10100100010011010110101100100010
01000011011111000101011111011111
10001111101111001111111110110100
11011110111101111011111011011101
00001100010101000110101100110100
01011010101110010111110110001101
10001100100011010110111100000010
11001011110101001101111101011011
00001111101010001111111111110100
11011110111110100111111010001100
10001111100011000110101100010100
11011111110110100110111100011000
01011101000101000110101101010100
11001111110111100110111100011110
10100110001100111001000100001001
01100001001010100000101111000110
01001110001100111110101101001010
01101011111110101110000011100111
10000111100010011000100101001001
11011001011000100101000011011010
00010101001000101001101100001011
01110111001100001010101100111100
01100111010000101000111110001011
11101111101100000100111101111110
00000000001000101100000001001001
01011011111010110110011110111100
10100100001101110001101100011011
01000101001100000100111110111101
01000000100000110110111111001110
11111101011111000010001010101101
01000000000000110100101011001001
01011101111110010111110010001101
11100011111010111010111011100000
11110111111001101101110010101001
00000001011010001010111001100001
10110111101011010101111010001101
01100001010011010111111110100111
11100111101011100101011010001001
11100011101010011011111011100101
11100110111001110111110010011000
11100001011001000111111000100101
10010110111001100101000010001000
11100001110111010011111000100110
10100110110000100101111001001000
01100011111010011011101010100100
00000111001011000110000010111100
10100101111000011011111000110111
00000110010000111100001001101100
01110001111101001011101000110111
00000110110011111100001001111100
00001100001111100100001100000110
00010100011100100111010100111110
11001100100011100100001111000010
10101101011101101110011001110110
00101000001101101100001011111101
00001000011111011110111100100111
11001110000111110100011101000010
01111001111111110111110101010111
01001000100111100101001111000110
00111001011111101111100100100011
11101100110011101101001110111010
10101101010101011011111101110111
10001010100010111101011011100001
10111000110100100101010101100011
10101000110101101000001010100001
10001000110101111101110111000101
00101001111101101001001010110101
10101000110110111011010101000001
00110110100101010011111110010111
10100111010100011001001001100111
00110100101101001010101100010111
00100001010101011010001101100111
00101111111100001011111010011110
10100101010101011010011101111101
10010010101111011010111111010110
10100011010111110101100101100011
11010000000001000110100101010010
11010101010110110111000110001011
11011010100011011101010111100010
10111101010100101011100101101001
10000010100010011010110111000110
11110111110101111001100111111010
00001001011101001010110111000011
11011111110110111001011001111010
00001011011111001100010011000011
11011111110010100101110110111001
10000010010010100101011111101100
11010010001000100101001001110011
00100101010010111000000100101001
00010011101011010100111101110110
00100101011000110000000100010100
00000011111011000100010010000110
11001111110110110101010110110100
10101010001001100111111001010011
01001100010001100001001100100110
00010011011101111110000110100011
11100101100011110101000110000000
10000111000010001000111001100010
11010110101010110100010100000110
11101111000010001010001001000000
00111000010101100000000000001001
01000110100100111110111110100100
01110101101111101110010011000010
10000101110100001000110100110000
01011001001111000000101111111110
00001100010101000110111001011101
11000100010001011001101100011010
10000101011110111110111001100110
00111000011101110011001100011110
01001000011111001110101101100111
11011001011010000010110011010010
11111100000100101001011011111000
00010001001101001000100001101110
01110100101110110101011000110110
11101001110110100100110110100110
11100000011011000101111000000010
11011011101010011110110011100101
11011111110100000010110011111000
11001010001000010100110111100011
11011110100100010011110011011001
10011000110111011100110101100110
10111000011001111001111001100001
00010111101001000001001100001010
11100011110100101010001100110010
00110001111011101000000000011001
10111001101100101000011100010110
01101101010110101001011010010010
01001111101110100100010100011110
10100001011010111110000110101001
00100011010011100100111101100010
11101000101101110100001100100111
10111011100111110111000110000111
11011110110111010111011010000110
10111101000100101010000001111001
01000111010010101000010110101110
11010101010111001000011100100000
10110111011001111010010010001011
11100111100100111000111111111000
00111011111101001110010001001101
11111100100010111101010110111100
01000101110111100100001010100000
01000110101010000101011100000010
11011110100111110101001110100101
00111110100110000010100010000111
10011011100111110111010111000000
00111110100000100010000010010101
00111100110111100101001110000000
10011011101111001100101100110110
00111111011101101000010110001101
00101010100001111100111111110110
00111011101111101110010101000100
00111010101001111001100111010110
01111000100101101100011101100110
11111000110111111111010100100111
11111110110000111100011111110010
10111000001111010010100011000101
10111010101010101110011111100000
10111000110101111011000011000001
