01001110011111001010110100001001
10100000111011001100000110000101
00000101111010110010011000100110
00001111011111100000000110101100
10000110101000001001011101010010
11011111010100010010101011111011
00000101111111101011111000000111
01001011011111100000000110000100
10000011101010010101001011110110
10011111010110110011111000111100
11010000000000000100110100001000
11101101110001001110100101111111
11000010101110000011111101110110
01111011011110010001101000001000
10010000101000000100011101011100
11001011110001011001100000011011
11010100100111100001110100001101
01100110110001001100111111011011
10000110001011010011000001001010
10001001100010111110110110101101
00001110010110110010011000001001
01001110010101011100011111101000
00111000010110111010111000111001
00111011011111101101011111100100
10010101010001001000110001001011
10100001111000111100000110110100
11101111111010010010001010100010
00010100000110111001001010100100
00101110011100000011111001110010
01001000000010000001001011000101
10010001000001101100000101001010
00010001101001100100110110111100
11000010101000000100000001101010
00010001100011111110010000110110
11001010111000000100001100110001
01000011011001001111010001110110
00111000000100110100100010100000
11110101111110101010000000111101
00110101101110010111001001100000
10011100100110111011101101000110
00010000000101100100101100111010
11010101110001101011111011110110
00110001000010110101011011101010
00010101101111100011110000110101
10010100111100000101111110100010
11010001101010111011011001110101
00011111100110010111111010100000
00011101100111100001011011110101
00110100000110100111011011101001
00011100101100110001010110110101
00110000000110100110010110101011
01110001101101001101111111110100
00001101101110010100001010101010
00110000101110111000011010110101
01010000010110100000111110111100
01111001001001000000001111100011
01101000010101110001010010110110
11110101101110100000101101101101
00110000100101010101001001001000
00110100001001110010111001110111
00000011001110110011111010110100
01011000001110100100001100001101
00010001000110110100110111011101
11111101100101100100111110111000
01110000000101111100110110001101
10110001101001011100010110110010
01001010001100111111110010010101
01001100101100001000001000001010
01110010000111111000110110011101
10101100101000000100001110100100
01110011000110111101110011001110
00100100001100110100101000000000
00010101010111100011010001001110
10010110110010011100010110001111
00010001001110100101010100101101
11010001011101001100110111011011
01010000111101111101110000001111
11111001111111001001010111110111
00110101010101000011001000001000
10001100110010110001000110000101
00110101100110110011011001101001
00011100001110110101101010001001
10110000100100101101110000111111
01110101011100001001100111111111
10000000011101101000110010000011
10100011111010100101000100101001
10000000101000000001101101110011
10010001101110111011001000111100
10010000101110000101011001100100
01010101000101000011111001010100
11001001001010100101000000001000
10111110000001000110011110100000
00001010000010001101100101000010
11000111000101000100111010111000
01011110110001111101000100001010
01110010001001011101000111101011
01000001000001101010010010001000
00110010100011010101001010101000
00010011101011011101000101000000
10011010000101110010111100111000
01010000010001101000110001000011
11100011111000001000000111111011
01000111010011111010010000001000
00110010100011110101000110101000
01000011101011011101110101001000
10011110100111110101111000111010
01010000110110101101110001000011
11100011111001001100100011111011
01101100111101100110111110111101
01000000011011000100011110100010
00101111011011010010111001100100
01010010011111111101001100101101
00000011011110000110111110101101
01000100101100010110101000101100
10111101100011101111011000111101
00011000010101110101000110000000
10000100011001101000110000001011
01000001111011111110100100101010
10000011010011010010011010000011
01000101011110000110100100001100
11101110111001011101111001100100
11011111000100111011100010100000
10100000010101010010110011001000
11011001101000101111100110101000
11000000000001010000011000100010
10000000100000110011111100011000
01111110110101100110010110010011
01110001011010011100010011111110
01101010110111100100110011001001
00110110010111100100010011111001
01110101110101010100010010000011
10100110110011111101111001111111
01100110010100000010110001010111
01110000011000000101101110001100
01110111100101010101010011110011
00111000010100110000111001011000
01110111000101000100110000000011
11110010111010111100111001111100
01101010000010010010111100011000
01011010010001010101000110001110
01111010010101101100010100011000
11010010110001010101100011000010
01101011010101100110110100001111
11100111111001000101000111000010
01000101001100001100010101010010
01110011000011100011111111011010
11011001100100001100111100100010
11110111110010100010110101011010
01001101110110111001110000000110
11111110111110101011111111000011
01001000001100101000111100111010
01110111000011000001110111101011
01101011001110011111011101110010
01011111010110100001011101101011
01101000010110101111011101111000
11111011010010101001100011110001
01001010001100001000111001111010
01010011010001001001110001111010
01101110101100001010011010111111
01010111010011001001010011110011
01101100011110101011110011010101
01011111011110100001000101100011
00010111001111010101110010100010
00111000111110001001101110000110
00010101001110010000110010100000
10111110001010001000101110000110
10000100001110010100010011001100
10001111011000100010101110010101
10011011000111011100110001110010
11110111110001000001110011000101
10011111001110001100110000000111
11100111110001000011100110000101
10001100011011010000010010100101
11101111011010100010100110010101
00011001000111101100110101011010
10110010110101000101100011010100
00011001010111101000110100000111
10100010010001000100100110110101
10001101101011011000010000100100
10001110010010100000110100011101
11110011100111110101111111011101
11011111110100100100100001110111
11110110000101101001110011001111
11111001111011010011010111111111
01000111001101000010011110101111
10010000100011110011110100100100
01110011111111111111011111110101
01001110010100101010101001100001
01111010000101111101110011011101
01101011011111001100100111100011
01001111001111010010011010101011
00011000100011110010010001100000
00110011101111111001011101110100
01001111000100111110000100110010
01111010010111101001110001011100
11101011011101001110100011110011
11001110001101100010011001100101
10110010100011011010010001100001
10010111001001101101110100011100
10111011001001010100101110101111
10010011101011111100110000011010
10100111101000110100110000011101
10010010011011110001010000000010
11110010001100011100010110101101
10010110111101001110111000011010
01011110001111110000001000101101
10010110101111011011111001111010
10010100000010110010101100001000
10010010010101000100110001000010
11111011001000010101000100111111
00000110111101001110111101011010
10011011000011000010010100100110
10000110001101001100111101011010
10010111100010000000110101110110
10000110011110001001010001000010
00110010101010000001010101111101
10000110111011010010001011010110
00011011000110100011111101100001
10010100101001011000000101010010
10011000000100010010111001110111
01001001000010111100100101001011
11010101000101000100011101110000
11000001000001000101000100011000
11101001100101010110111111111110
11010000000001101000100100001001
11100111111001000100100110100000
10110111110010111001100000001011
01100110111101100100011111000100
01000000110001101000100110001001
01000110111010110110100111110001
00000101111011111011100000000111
01100110111010110100101110101000
10100111101000011111001011010110
00110010000110111011111001010000
01101101011010110011000011001001
00011100110111110111111100101100
01011011010010101100111100101111
11000111111001000110100011111010
11101110011000011001101000110111
11011111011010001011010001110011
11101100011000111000100011000111
10110001111010010110100100101101
11101111111110000011001111111100
00011110000110110110111010000000
11101010011010101100111101111101
11011011010001000111111011010010
11010001001000001100011100001010
00110001111011010111101000101000
11101010111000001100100100110111
01110011111011111010010010010110
11101010111110010011101001111100
01011111011101000111001001010001
10101000101001111101100000001111
00111111010011110001011101110010
01001000111000101100111100011101
01100101110001000001000000000001
00001111100011111010011000001000
00011100010111111001001110000100
01111100110100001000111101110111
10111011011010011001110011110010
01101100111111000011001011101101
00111110010110111011001000100000
01011110111101001000111000000110
10011001111010011011010001000010
01010000000001101010110101001011
10110011111001001100100111111011
11000111101011011100000111000100
10010001110110111010110000011011
11011010000001101100100110001101
10000101111001001110010111111000
01101000010010111000000100000011
11101001010110001100011111011010
11001000110010111110101110100001
01100101011011101110110111011010
01001000110001111100100100000011
10001101010001100100010111001010
11001000000000111000110000000111
11100001010001001100100101111011
11001101111011010010001010000101
10000110010110111010111001101001
01011100010000011100110110001001
01001111110001001110000111101001
11000001000000010111000001011001
11100111110001000110111001111111
11011000110001000110000101001111
11100011110000111110111011111011
01111101111001010011010011000111
10000110111000110110001001110001
10101010010001010000100011100101
01010111001010101000000010101001
10000111101011010001100011000000
10011000000100111010011000111001
11010011000011001110111001001001
10110000000001001100000010110000
10000001011011110111000100001101
10001101100000111110110111011010
11010000010001101100100100001011
10100101111011001110010010111111
11001011110011011001100011000111
10011110101110111110001000011110
11000101000011010010010000000000
10001100100110111110111100001101
11010101010011111001010001001001
00101010110100110100101110100000
10111001111010101100101100101011
10100000101000111110111010011100
10001000111001000101100100001000
10101101111010100011010101110011
01001000011100001110101100101001
11100111110001000011000000000101
00101101101111111101101000011001
01001111011111110011001111000101
11111000110100101000000000000011
00100001111111001110010111110000
11101101111010011011001011101101
00001110000110100010001001100000
11011111111101001101111000110011
10001011101001111011000001000001
10001001011001100010100001001001
00100010011111000110100111001111
10011001101011011101000101110001
10000000000100111110111001011111
11011010010001101100110100001011
01100011111001001110010111010011
01001000011001101111110110011001
11100001101011010100010111111000
01011000110001101111010110001001
10110111110000110110010111111001
01000011110011111101010110001000
10011101001111110110010111101000
01111000011001000010110000010011
11111111011011000110001111111001
01010101110101011111010011001011
10111100110100110100100111111001
01010110010001010001110010001011
10110101111010011000000101111011
01101110111111100011010110011010
11111110011011001000001101110011
01111111111111000111010111011011
10011000111100011000010101111010
01111101011111000001110010000011
10111100011110001000000001111000
00110011010111110101011100101101
11110111001101010001000111000110
01111011010100110100111100101001
11110001100101011001010111001110
00111011110101110110111000101111
01110011101100111001010111001111
01110101100101011000111011000100
01011110000000010011001000010100
01110100000100010010011011100000
00011100000110011011101011000100
01110100101100001001011011101110
00110000000010110011101000001100
11000000101111001000110110101011
10110111101001100000010000111011
11000010001101001000111111110001
10011001101001101011010001011010
11100010001101001000011110100001
10010011100001001001010000010001
10110101000011010101000000010110
00101101110100011111000011011111
10000101000001000000100000001110
00101100100000011111010110011110
10010100000000000010000101011110
00100010000101011111010110011010
10000100000011000001100011000101
10011101100010010110110110011101
10000001001001000110100011000110
00011100100010110010111110011100
10000001001000000110100101010110
00010000100011110011011110011110
10000111001011001101000010001101
10001101110011100110111100011101
10000000001011100100100010001001
10000111111011110110011110011110
10001001101000101100100110011011
10000011011111100110011001011110
11011010001001100110110111010001
10111110010010101000111001111001
01001101101111110011110001000001
10111100110010111001111001111011
01001111110011101011011011000001
10000000111010101000111001111011
01000011100011100110010101011001
11110110010101010100111011111010
01010000100001111100110100011011
10100001110001001100010111111011
01011101110011111011010010000101
10101000111110111100010101101001
00111111110101010011010001010011
01110110010100011000001010010101
00111101110111000011010001000110
01100000011100011100101011110000
00111101110101010111010011010111
00000000111110011100000010101001
11101111011100100010001110100001
00001111111011011100000100001111
11110001110000101100110100100011
01001111011100001111101001111110
10110110111001101100100001101010
10010010111000001110110001111111
11101111111000010111001011100001
11101100000110110011001000000100
10110001100110010101111101111010
00011100010101111111111001111110
11111010100110111101111101111111
01100000110101001101110111011111
11001000111000101100001100111000
01100011111011100110010000101100
11111101110000111101111110110010
01010111111001011111001011110001
11111111100110011111111011111110
01110110000100011101111111110111
01001000000001111110010010001011
10110101110010110110110111011001
11001110111101111101110010000001
00101000110010110010011101000101
01011011101011001111000110111100
00001100100011110000101000001100
00111111000110010111010011111001
10110000000100110100110111111011
01111110011111101000110010001111
11110001111010001100000111110001
01101111111111011011011110110000
00011100001110110010001000000100
00111111100111011101000011110011
10100100010100010110110011110101
00111111110111001111010011110000
00100000011100011100001011110101
01111111001101101010000110010101
00000001101101010010000111000101
11101111101110001111011010111000
01110000000011110011001000000100
01111001000110101011110110101000
11100011001101001111101110000010
10100000011111110111011111000010
11000111011000111110100110101100
11101100111000001010011110110111
11101001101010100011100000101000
10101111101010010011101010110000
10011111001101000011101000000000
10100111001100110101011001111010
11100011100000010011100010111001
11101000101010101110011110111101
01111111000101000111100101111011
11001000001000001001100100010010
10011011101101001010010101111111
11100000001010010010100011000010
10110110100010001011110101111000
00100101111110010011000010110110
11001011001110100011000000011100
11011010101000010101001011110110
10011001001000110011110000010100
01111011000001000101000100101101
10000000110001000100110111110111
10110110101100000101001001111110
10011101000000010011111001111110
11111000000100100100111100011001
11100001110001001110001101100010
01111011111111111011110000101111
00100110011111111101000111100001
01011000000000001100100100101100
11000101100001011100000111111011
01101100011111111010110010101101
01101100111111001100001110100101
00101111111111111111001011110010
10110010001110110001111110101101
11001010000110111100110110110101
01100000101011010101010111000110
00101010111110110000111010110111
01100111011111101001101110000101
10110101101101010101100011110110
10011101111110111011111001011001
01101111111110110001011011111110
01110010000111001000101010000100
00111111101110000111011111111100
01011000000101100001111001010010
10011000000101101100110111011001
11001101110000000000110111111011
10001000111100011100101101111000
11010001100001010000001110011100
00111010000101000010111100111010
11000111010001011000000111110000
00111100000110010011110010001001
01101110011100101100001101100001
11110100011101110001010011001101
11100000111010011110110101111011
01100101011110000010011000100101
10101100111010010011001000000001
01100001010100110000111110110011
11000101111110100000101001010100
11111110010101001100110010001111
01100010111010011100110101110011
11101101111100110010011000100101
00101010111111110111001000000001
10100001101100110101111101110101
10011101011101100011101101010100
11111110110101100101000100000111
01100011111001101110110011110010
11101010011100110010011000111101
11100001111111111011011100000000
10111011000010110111001101110000
01001101011101100111001101000000
01111010110100011100111110110101
01100101000100000001010001010010
01111010011101111001100010110110
01111001001111110011000001000001
10000110001101000011001010111100
10011100100111110010111100000000
01101011101110110011001110110101
01111101000100100011101001000010
10001010001001101100100101111111
11110001111101101110110001110110
11000101011001000000000011000110
10100001100010110110010110100110
00001101101010010011001011110100
01111100000100111011011001000110
10011101001011010111000101011100
11101100000101011110111101010110
01011101110001101000100010001111
10100000111010110110110110111011
10000000011101000001110011000000
11001111111010110010111100111001
11000101101111010101011011110000
00010100000110110011111000011101
01011101000111100101111110111111
00100001111001101001101001010111
00010010010111101100110100101001
11100111101111000100010111111110
00101000010101111101110100001011
11100010111010001101010011100110
00011010111100111111011110101101
00011111001100100001011100000100
00110111100101011111010001001000
00001110000100110001000110100000
00111110010111101001111000001100
01101011001110000101000011100000
00101111100111011001001111110000
00001101000100110001000110001100
11110011110101010100110010101010
00010110111011110000111000101000
11110011000111111101111011100010
01010111100010110001111000101000
11000010001111011101011011100101
01011101100010100011100100101101
01111010111101001100111100101010
01010110110011010111011000110010
01111010001100011100110100100111
01110011011011000001011001100001
01111010011111011001011010100101
01111101101110101001000000100011
01111110101101101000111100100010
11110110001111011011111000110001
01111110101110100011011001110100
01111111001100110001111101110001
01111110011111010011011001100100
11111101001100101000100101101001
01010111110110110011011011110100
10011110110000110011101010010000
00011011100100100110011111011111
01000010101001000000101111000010
00010000000101101100110111000111
11100001111010101100010100000100
10001100111101001100111010010111
10110111111011111011000001110001
01001111111110010011011011010100
00011110000001111011001000000001
00010011000110110111011111011001
00011000110001000100101111000010
10111001110111101100010001011101
10100001010101000101110110110111
10001000111100011101101110110111
10010101011010001011010001110011
00001110110111010011001010010100
00011100001110000001011110100101
11010000010100101100100100011111
11101011101011001111001110010010
11111000010110111110110101010101
00001101010000000110110010010000
01111000000000011101110101011011
10010110001100000001111111011010
01001100011000001001110001000110
01110000111010001011001101010011
01101111111000000111011001110101
01011100110100010011111001010000
01111011000101101100110101011001
01011000111001011101000111000100
01011000111110001100110100001101
10100001111111100110111101110011
01101110011001111010011100001001
10100101110011000010010000010001
01101111010111110011110000000101
01011110011101010101001110000001
11011011110010101100000110011011
10101010010101001101010111011010
10011010010011101100100110001011
10101011010101001100010110011011
10011010000011111011100110001001
11100111011100011100010111000101
10011111100000011011100011000111
01101111010110010110000000111100
10011111101011010011001011010101
00001110010110110110101000001100
10011111001001001011000011010101
01001100010000011110101100010100
10001010001000100110001101001100
00000011111001100111110011110110
10010010110001100100000100001111
11000011111001111110110111110111
10001010010001100100000101001110
10100111111011110110010111010111
00000000000001101010110100110000
10010100101101111010101100001001
11010000010000111111110001111010
10110100101000111011111001111001
11110000110010000101011100110000
10111010100000101011111011111011
00000101011011110010010101110010
10110100101110011000111100101001
01010001000000101100110100111010
10110101101101001001111111011110
01110000110010010101011100110010
10110010000110111001111011010010
00110101111101011010110100010010
10110000101110001000000100011110
00100101011110011011111101110010
00011010001110011000001100110100
00110100011110011011011100110010
10110010000010111001011010111110
10010110011011010101011101011100
01001111001100000010100000101001
10000000110011111100000010011101
00101001001101100110100000001100
00010000101000101100100001101011
00010001000111010111000110011100
00010111011011010011010000000100
10001111000110000001000101101001
10000011010011000011000010001100
01001110101100100110101100001100
11010000000001101100000010100011
01100001111111001100100110111101
01100110011001100011111000001101
01101111101010110001000101111011
00010111010011010111100111000100
01001110101111100100101100001100
01010001000011111111010111001011
01000001110111101100110110111101
01101011111011011110110011001011
00010000110011100100011110101001
01100101111100011101110010010111
00010100111010110000011101101001
01100011001011000010111111100110
00010101101011010010101100001100
01110111111111111111011011011111
00001111010101011100111110100001
01111001110110101100110110001111
01111001111011001101111111101011
01101010011111010010110110000111
00011001101111000010000100100100
01111111110111011011000010001110
10000010011110011011001010011001
01111110011101101011111111110100
01000011011111001011000000111000
01101100011111000011000011100100
00001101101101110010100100010000
10001101011011101010110010001101
01100010111011001100000110001010
10001101111000011010100100010100
00001111011100100001000000001001
10010100100000101101100100001010
11001111000101011001100111111011
10010001111011100011000010000100
01100011011011100001001110101100
10000011101000010100001111010100
10011111000100110011101000011101
01010100000001101000100100001010
11000001110001001100100111111011
00000011111010110111010001010100
10001011011101110001001100101100
10000001100000110000100111011000
11010111111101111101100000111111
01010100000000111101110000001010
11100110111101001001010101111011
11110101010111000101110101001011
11100001111011011111010110011111
10101101000010000110000010001101
01100001111110100110000100001100
10100000010001010101100110000001
01101001111100010111110101011100
11101100010101110101000010001011
01101011011011101001000111001000
10101011111001010111001010110000
01001010001110110011001000001001
10100000010101000110111101100001
01000111011001000111100100010001
10111110000010000111000100111000
01101011101111000111101111110001
10101000111000100110000101111001
01100011111111100111110001011001
10100000111011010111100101100000
01001111011101100111111001010001
00010000000111100100111101111011
11110101101101000100100011011111
01010000010101100001110000101110
11110001101011011001010111101111
10100011011100000110011100111101
00011000100011110011010000010101
00110111100110010101011001110001
01001110000100000100101001001100
00110000000101101100110001000111
11110001001011001111000111000110
01100111100111010010011100100000
00111110000110110011111000000100
10010011100111111111101110100100
00001111000100100110011100001000
10010000000101101101110001000010
00101111101101001110011111010011
11011110001001101010101010110011
10110001000010000110010011010011
10000111011101111101111011100011
11110010111110111010100001010111
10010011110110010011011011111001
00011110010110110011111000000100
10011000000101101100111100111111
11100001111011001100100111000111
10001010110101100110111100111111
01100011011001001101100001110110
11001110111100011001111001010001
10111010110110111001010001000011
10000111000111010011011011111100
01011111010101100000001111000010
10000111010111010011011011111001
00011100000101100111111111010100
11001000000100101100110110011111
11100001110001001011000011110010
10001111111111010011001010011100
10011110000100110011011011000111
10000101011001110111001000111011
10101101100110111110010101111101
11111101000010100011000100011000
00101101110001110110011111001100
01101001100010100100110100011001
10000001111101011100010111101111
11111100110000011101110101001110
10100001110010110011110101010110
01111111111011010011001100100001
00111100000110111011011100000101
01111101101110010011011011110001
00011100000110111011101000011100
01110110110110101110010100001101
01110111100001000101101111000010
11100010111000001100011100100111
01110011111011100011000001001010
11000010001000001101111100100000
00010111101101100011110001011110
10010111111010010001000100011010
10001110101110110110011101111111
01011000101010101111010000011101
01000100110001000100011111111010
01101010101000110100100100010111
01100110011110101101010101110110
11101100010000011000100001001110
00100001111010100111000111000001
01101011110110010011001011110101
00000100000100110001011110000001
00111010000100100100011101111101
01010101011101001001111001010010
01010011010010011100100000001010
00011111110011100111100111101001
11101010010000101100100100001111
11011111110101001111000010101010
01101010010110110111100000011111
01011111011101001011000111010000
10101101101010011001101010100101
00000110010101100001011000100000
10011110000111010100101000011110
10100001011010111011100111000010
10011110000100001010100000100110
10101010111011100000000100000001
10010110101011011101000111111110
00011100010100110111111111111110
10011110100001101111100110000011
10100011110001001011010101011010
10001100111011011011001010000110
00100111011010100010000100000000
10010010000001100100100101011101
01000111010100010100010111001111
10101000010110110001100011000111
01101111011110001100110111011110
10001001101011110111000011101111
10000000110110110110110110011110
00111111010111010111010101111001
11001000010100011100010111001101
01110001000111110111010110001001
11100000010101001100000111001101
01111110110011100001010111011011
11100001011110001100010111001111
10101111110101011011101010110011
01001011011110000100001110000100
10101110101110010011001011110000
00001100010110110101001100001100
10110111000111010001000011111101
01001100010100101100101110001100
11011010110100001110101100011100
00000111101011110101001010000110
10101010010000101100100100111100
11000011111001000111000000000110
10100010101101010101100000101100
11000111011101100111000101000100
11111111111010001010001110010101
10010100010011000011001010000110
01111000000000101100110101100110
11101111111000001001101111010001
11100101010111011001100011000010
10111110101100110011110000011000
01101110111000001010011110010011
11110011110011101011011000100011
11111011001001001011011111110100
10011111011101000001101100000001
11110010000101101100010111011010
10000101110000010101110111110010
01101001111110100010000100111111
11110011010001000111001100100010
11111011101001110101100001010110
10011111111111110110100101100111
11110000000111110001100011001100
10100111111100011110111101110011
00101000000101100011001000000001
10111001101011001001000111100000
00101000100110101010001110100101
00001101110001001011000111000100
01001101111100100110101101111011
01011101011011011011010111100100
01101100010100110001000011000111
10110001111100001100010101111111
10000111111010010011001011100100
10011100110110111010111000010100
10001000000100100100100101011001
01000001010001001101110111101111
10010000010001110101000001001001
10100001111111010110111111011111
10010001000010110100000110001111
00100001111000110110110100011111
10011001010010110001100000001111
00000100111111000100011010010101
01010111111110010111010101010010
11011001001110100111110011011110
11000011001010100011011110000101
11100010110010000100010110111101
10100101100111110011100010000101
11001010111110110110111111101001
01011100000100010000100100010001
11101011011001000111001111010110
00101111101110010011001011010101
01101110010110110100101100000100
10010000000100010000000111010010
11001000010110010111111001011110
01001100001100010011101000111110
01111011001011000101011101100000
11001111000110000010011100011000
11011010010001010000001110000010
00100000010100101100110101011001
11100111011001000100000111101011
11111101000100101000100110101010
10010000110011111100110011110100
01101010000110101110111010100001
10110010110010111001011001100011
11111010010110110011011011100100
01011111011001100000111001000001
11001001010100001000111110111011
10110000110001111100011110110010
01101010111100101010111100100001
10100110011011000001001001100011
11101011111110010111011011110100
11011111001100100010011111000110
11111101110000001010111110101010
00110000110001010110111010010110
01101110111100101011011101111011
10110011011011000001000111100011
10100111111110010101011101110100
11011111000100110011000101000100
01111100110100011101101010000111
01100111111011001001000000010010
01100011011100010110111011101111
01000100011010010001001000001000
01111001010100101011100110001111
01100001011001000001001100000010
11011001111000001101000000011101
00000011110011101111111001110011
11011001111110001100111110001111
01100110110001010001110001110011
01001100111100101010111010000101
01101011111011000001001000100000
01111101110111000100010100001111
00000010111101111101111001110001
01111101110110110011011000000101
01100010111101110101110001000000
01111101110100100110110000101101
11101010011111111101101101101001
01000010101100101100111010101010
10010001100111100101011111111010
01001010011100110100111011111010
10011100000010100000011101110110
01001001001111010000011010100010
10010101100110110110111100101110
01101010111100011001111010111001
01010010000000010010011001110010
01101010011101011100110110011011
01110010011010000000000101100001
01101111001101011101011010100011
10110001101000110000000100100001
01111111111111001010111011111110
01011010000101001111000010110001
01111111000111111011111000110111
01111010000100011111100010100001
01111111001111001000011011100001
11111010000100011110000010100001
10001001111110111110011101111010
10001010001101101001111111100000
00111001110010101100110100001011
10100011111001101100010110100011
10101101111010110101110100000100
10001010100110111011110000001100
01111101110110011010001001000010
00111010111000111001011111100001
00111101010110011011010001100000
10011110000100100000101110001000
00111000000101111100110001000111
10011001000100011001100011111010
01100110011101001010111001001010
10111011101001100011000011100011
01100110101110001000001001110000
10011111011110100011000000111001
01111100001101001011000101100011
00011111010000001011010001111010
11011000000000101100100110010011
01101101010001000101100111011000
11001001100000111111100010100000
10101100010110100010111110011000
10101100101001011010000000001001
10101110111011110010101110011011
01001010000000111111110101110010
01010111010101000110101011111000
11011110100001001111000111111001
00100011010001100110110111111010
01001100000001001011000100001101
00101011111011001110011111111010
01000010000100110111100100011001
01001111010101000110100111111110
01111010000111101110110110001111
01100111010101000100000111101001
01101101100111101011010011001111
10101010011110110100110111101001
00110101110111011001001111101110
10100110101100000001000101100001
00111100010110011101101110100110
00010001001110011001100111000011
00101000001110101010101101111011
01110000000001000001001110000000
10100100101010010001001011100110
10011100100110110001100000000000
10101000011100100000101110100110
00000001101001001001000000010110
10101001001110010010001001110110
00001100100111000011011000000000
10010101101011011101001010100100
10001100100110111000110001010111
10000000000010100000100010100010
10101101101011101110110110011101
10000101101010110010001010110110
10000000100010111010111010010101
00101000010100011000111010100111
01111111101010100011000000010001
10100110101100010001011001110100
00011110000010110011101000010100
10111010000100001101111111110100
00011100001001000011101000010010
11100000101110000110000011110110
10011001100101110011111001010011
11101010101100001100011100110110
11010011101001001011010001110011
01101111111110111010111110100100
00011110100111101001010000110001
01010000001101100000000010101000
10101101000100011101110101111011
01111101000111100010010011001101
11100101010110011100111111111001
00001101101111110000100110001111
10100000110110111000110010111011
01110011000110110111111011101000
01010111000111100010101110110101
01110100101100001101011101111001
01111011010010111011111011110010
01100111011111101010011010000101
00111111111011100010101100100101
01100011101110110111011010111000
10011100000101101011010111110001
00111000010100101100110100011011
11100001011011001111010111110010
10101111111111011011011011111101
00101110010000100011011011100011
10100101100110100000111011100000
10011100010100011111010111110100
00101100010010101011110101111011
11101101010101001110100111110001
10101111111100000100011101010010
10101100010000010011110011100010
10010010000100100010110100011110
11110011101001001100111101110110
00001111011111111010001110010001
00001111101110000100011101111101
10010101101011011101000011010111
00010110011100101100111001111110
10001100010111110010101000000110
01100000001111000100001110000101
00010111101110010011001101110110
01000010000110110000111000111101
10011001100001100101100111011101
10000100011000011100111111111111
10001101011110000010001000101000
01011000100011110000011000000100
00011010010100101010111100011001
11000001100001000100000010000011
10111010010111101101110110011001
10000111011101001100000110101101
01101100001100110011011101110000
01011001000011001001011111110100
01101100000110101110011100111001
01110111010011001001010111100101
00101101110110010001011000100010
11111001011111101001010111100101
01001100011100100010111000100010
01010001011111001001000101101110
00001101100010000011011011101000
10011100000101110000010011101100
00001100010000000000110101001011
11011001011101001100010111111000
11000100000100110001110011111011
01011000101101001100100100101100
10000001000111010000010110001011
10010100110100010100000110111100
00001101010110010001110001001011
11000101111101101100001111011100
11111011101010110011101010101001
10000100111111110111111110001100
10111011110010001111101110100011
11001010011111000011101000011111
10110111111110110001101011100110
11001111011110111111000010000001
11101111111000011001111010110010
10100010111110111011010100101101
10111111111110000010001111110000
10001111000100100110001000000001
10111010101001101101101101111011
11000011001100001111100001011011
00001000011000101010100101110011
11101011011011001110100101101111
10001110111000010001101101110010
10011111101100111010010111111011
10011100101010000101001011111000
11101111010100101110111101111111
11101100100100001010011010101110
01010001001101001010000010100000
10100111111010010011100011000110
00011111010110111110101010100000
11010000100010000000001001100101
11011011000101001111101011110000
11000000101000001100100011110110
10010001100001101111111000111110
10000000101001001000100110000110
01000001111001101110110001110001
11000100101010010001001110001000
10000111100001000110011000110011
11011011100110110111010101110001
11101101110100111110110001111011
10011000010011100100110100001001
11100100111001001110111101111011
11011101110010110011011100001011
10100011100010111110011100110111
11110101110111011100110111110111
00100000100100001110110111010011
10101110011101011001011010001110
01111000100011011011011001010010
11101010001110101010101110111101
00111101001011000011100100000000
11010011100110010100001011111010
10110000100100111100110011010010
11001110010101101010110000001111
01100000101011001101010111010010
00101101111110011011001010110100
00011000000011100011001100000100
10010101000011000101001101011001
10010000100101011110111011110011
01111100111111101010000001100111
01100001100011101100011111010011
10101110111100011011101010110110
00011001001010110011010000000000
10110010001110010101001111110101
01010101000100100111100001011111
10110100111101110101100011101011
11101000111111111101110101101111
01101101010110010110001110101000
00001000100011110110111100000101
00110001101110010111001111111001
01001100000100110111111011001010
11111000010101101101100100001010
11100011110001001111000111110110
10101111111110011010001010100110
00100010001010111011100100000001
00111001010110100011001101111001
01001110000100011111001011101001
10111000010001100010100101111101
01100010011101001111100111111110
10011001111011001110001011110011
10100011001111111010110111011011
11001011100001111110000111011100
00011100110000101110110111101011
11010111100001011001000010001000
10011010100011011110110110111110
01000111111011001011010000001000
00010110100011000110101010001010
11010111100011011100000111001100
00011100100101111111110111110011
11010100000001101100100010001011
01100001111011001111110111101111
01000111111011011011000010000010
00011010101010110011010000101100
10111111100001001110000111011101
00111110110001111010010011100110
11010111110011001010010010000000
00111000111111100110111111101100
01000111011001001100010000000010
10110011100011011011110000111100
00100011101010110101011111110100
11011100100110110011000000011101
01110100000001100101110101111111
01011011011101001101000111101110
01111101010101100010011010101011
11110010111011001010000110100101
00100111111110011101001010110100
00011110100100110011111000011101
01111100010001101001110100001010
01110011111001001100000111111110
01101011111111010010011011100100
00110010000010100010111100110000
10110001101100111101111100110100
10001111001100110110100001011010
01111100010101101001110000001110
11101001011001001110011111110010
11101011111111000110001111111000
10111010000011110111111110000000
