10011110000110110011001001011100
01011111110111111011101011100101
10001001010110111011001000001101
01001011010110110000001101100001
10001011010111010110100000001110
01100010100110101010000001010101
11110111000010110100001001010111
00111111011110101000110011001101
11111111100011111101001000001111
01011001111110111001011111110001
01101011100001010111100000000100
00100011001010100001001101011110
01110101100011000111011001010111
11011111010100111000111011001100
11110101110000000111000001010101
10011001010000110001111011011100
11111101101011000101101100010110
10101000001100010001110101111100
10101000101001100111001011000000
10001100010101011111010100000011
10000100001001001010110111100011
11010110010011110110111010000111
01110110111010100101110111110110
10110010111000000010101010001010
11001010000111100000111001101110
11100110111101101111010110011001
10111000101001000111100011011001
01001100100101111111111110100101
10110001011011011110010110111000
00010010000110000000101011011110
10100000011001001111010010110100
01100010010001000110110001001101
11101010001110100110001010011100
01011010100101010110000101101101
01011110110011110100000110011111
01000001101110111000000011110101
01110000000010010010010110011011
01000011100100111100001011101110
11110010010001110011000000111011
01000011100000111000001001100000
11101010110101101011101011101010
01100011100010100000000101110010
01110101100110010000000101111010
11010011100100111001001011101100
01110100010100111000010000111010
11000001000000101001001101100110
10111000111100111011011001110010
11000001000001000001001101110110
01110101101110101000011111110011
10010001001010011001111011101110
00111100111100111100011100110010
11110000001100011011011101111010
01111111101101100100111101110110
11110001101101011011011100110000
00010010110001111111100011000100
10111011000100010110111101101000
00010000001110011011000011001101
00001001000101111100110011110101
01000000001000010101011011110101
01101100010100010000100011001111
00100100011100001111010001100000
00111010011010000111101101110000
11011110100111110100101011001111
10011100111110111111010101110001
11001110110111111110010110000111
11001101011111111101011001010000
10011000110101001111001111111010
11011101101101111101000111100100
11011001011100001100011110110100
11100101110001100010110011001111
01101010111001101100100110111100
01111101110000000100101111011011
11011100110111110101101110110101
11010011100110111001011111110000
10100110111001000110000111110000
00100001000010011000101011001111
10000000101110000111001011111101
01111000000111011111110100100101
00110110111001111110110010100001
10010010000000100000101011001010
10110000001010101011000001101100
00101010010100010000100001001011
11011000000110100011001011001111
11111000101110011011010110100101
10000000011011011000110000100000
00000010010011100000101001011010
11010010011010101000100001001111
01101001110110010010001011011111
11001010000110100101101011001111
11111111111110111000000011010111
01001100100111111101001010110111
11011100011111111111010100110001
10111110111011011101110110111110
10010000101110011001101011010111
00110000101100001111010010010101
01101100001100010111110011001101
01111110101011001100010110110111
11011001100101111001011111100100
10100010011000101011010001110100
00100010010000010001101001001110
11111000001111101011001111101111
11101100001100011110111010100101
10110111110111101100100111000111
11011100001110110101011101110010
10011001000011101010000001101110
00101010011110011010001001111010
11011111000111100000101111001011
11011101101110111010011111110001
01001110101101110001101101001111
00011110101110100101010110011000
01011010100111110100100110011110
00011101101111111101001100010000
01000001011110010110110111111010
01111111001101010110101100000101
00010000111000001001010100110000
11110001100001001010110011001110
00000000011100001011000101110110
01100010000000000001100011001110
11011001000111000011101001011011
01111100001101111111010100100101
10101110110001111100110101000010
10010001010010001101000100110010
10011100100111100101000000000011
11000100111111101101010000100000
11001110000110100100111001010110
11100110011011111111000101100001
00101011010110101011001010001000
01101010111110111101110100000100
10001011110111101001001010001000
01100000110111111101010001010000
01001011110101101101001011000000
00100101000001110101111100011100
11111111000111101111001110001001
01111111111110111000011111100100
10100011010101000111001111001000
10001011110100111000011011100100
11101011110101010111001011000001
10111101011100111011011000101000
11110111100100011111001111010111
10011011100110111000010011000101
10100111110001101111000110000101
10101001110100110000000011011100
01100010110111000101001111010101
10011101100110111011011000010001
00001111110101001110111101000100
10110101100011100110011110111010
00100001011000010011011110010000
01101001000001000010100011001110
01011000001110010101001111111010
11101001111000001101101110100101
10001111000001110010111001000000
00100110000010000011110000011010
10011110100111110100101110001111
10011101111110110000010100110001
11101010000111010010000101111111
11111011001110001101111001100111
10011001000001011010001011001001
01010011001111100010111100111010
00000111001000010001110101110100
10110001110000100000101010011111
01110000101010010111110100011010
01101000001100000011110011001110
00101010101110011011000010110011
01011010001001110101100001001100
00000110101100110101110010101010
10010000111000011001100001010011
01010000101110010111001000011111
11111100001111111111110111100001
01111001010111001110011110110100
00011011100101111101011111100110
10100000011000011001010101100000
00100010010000000000100001001110
01011000111100110011001110111101
01101001110110011010110110100011
11011111100111101100101110001110
00011111101110111111011101110001
10101011010011101000010001000110
00001011010110010000001011011010
10000111001110110011101011001100
11011101101110011011011000010011
11101111100010001101011011000101
10101111111110110001010011100001
10111011100111001101001011000111
10011111110110110011011001111000
10101111010101001100001011001000
00011111111110010110011001110000
11101000001001011100000111100011
00010100010100110001001010101111
11111110110011101101100111001111
10011111110110111010011010110001
11100010110101001011010011001010
00011111011111110001010001110101
01110100101100010000110100110010
11110000000001001111101000101110
00110100101000110000110111110011
10110100000001011001100010100110
10110000111010110110110111110011
11110010011101011001110111100110
10000110011010101110111001110100
10000011010000000110111000011010
10100001101000001011101011101101
01100100010011000010001100101010
00011110101111100100100101000111
10110100110010101001111001111010
10001010010001111111101000110000
10000110110000101110110011011001
00011111100101110110101110101111
11010101101111111010010100010001
00100011011001011001010001110100
00100011010000001000101011011110
10101011110001011111011000010101
10000011110001100110010001011101
01101110101100010001111010110100
01010101001100011010100111000011
01110111110011111100000110111011
00010111111100011001101000111010
00110000001010111110010000011101
00000010010110001110110011011000
00011110101110110100101110001111
11011101101110111101011110110001
10110000010000001011011000000101
01000010000101010111011111111101
01110100111011111100110110111101
10001001101110111100011010011010
00100001011000011011010001010000
01101010010000000000101010001110
01011011110110101001101010001100
11011110111100111111011110100101
01100110001011111001110101100110
10101101111110111100111010010110
01111100110111101011001110101011
11011001111111110101011100100001
10101111010101001000111101110000
11011010110001010101111110100100
01111111000110001101001011100011
11111101100110010010100011110010
11011110110111100100101010011111
11011101111110101001110110110000
10000000110100011011011110110101
01101111000011100100111010011100
01011101000111010110000100011011
11011001101111011010001111110010
01000010011000010001110101110010
00100111010000000000101010011110
00010100111000100111100101011101
00111100100011001010111000001001
01011110100110000110111000000111
01011100101101010001111100110011
10000100010011001110010001000010
00101010010000000000101000011011
10001100111010101011101101001111
11011100111001101010011010001011
10011110100110001110101000000100
10011010110001101111010100101000
10000001101100011011010001010001
10000010000001100101100011001110
10010000111010001110110000110000
11110100010001000111111110100111
10100100001101101000110001100101
10100010010010100010111000011010
11010100100111110111001010001111
11001100111110111011010100100001
11101110010111000110001100111110
01001110101111111101001100100111
00110000110001111011001110111010
00111101010100100000001001010011
01100111001000001001000100111010
11101101111110101000100011010111
01100011011110001111001110111010
01101101101100010101101011010111
10101000100101000000101011100000
00110111011100100000001011110010
11101000010100000011111011100001
00110101010001000010001000001111
11101010011110000001101011100010
11110101111001000000001110010010
10101010000101000100101011101111
00100111010001101010001001100111
01111010010111100010101110111011
01100101110001101001001100110011
01101010010001000111110110100011
01000111111001000000001011001110
00000110000100110100000110110101
01100011100000000010001001011111
00111010001100010110101110111101
01100011100001000001001001001011
00111010010111110110001110111011
01100011101101011100001101100011
10110001011110110010010010110100
00100010000001010111000100101101
10011110111110101100111000000110
11100111100011101101111001110001
10001101100110100010101011001111
01010110010011010111111100111000
11111110101011010000101110001111
10011111111111111110011110110001
10100000001000001011010001110000
00100010100001100101100111001110
11111001001000001101011011001111
11010100110001011110111111110001
01100100001100010000110111110010
10111101010100000000101010000110
01110000110111110001000110011011
10011100011100110100010010100100
10111110110101110101001100111010
11011101110101111001001111110101
10110111010100111101011100110110
11100010000001001100101111100001
10110001011011011110011000010101
01001011000111110110100101100001
00101111011100010100111100100100
11101011001100010100000001110101
10011101101100111000011001011111
11110010000010001011000001111001
11011110100111110100101100001111
11011101101111111011101110110001
11000011001011011000011101000000
10101011001111000101001001011000
00010101111000011001110101011100
10010011110001000110101110010010
11100001111000011011111001110000
10110101100000000000111011001110
11011001101001001111101110100010
10101100000000010000111010001101
01010010011100010101001101011001
01101101001110101000000010001101
01010010010110000101001110001011
01001101101111111101011010000101
00000111111011000001110010100101
10000111111001111101011111011110
01010000001110110110101101011111
11101100101111101001010000101001
01000010111111010111101110011111
11000101111011101101011100000101
00100010111011000011110011110000
00000011010001011101011101001110
01000100001110110111110100011011
11101001001011101101100011011111
01001110101001110101101010110011
11100111011001001101011101000101
00101110111001101001111011110001
10000011010001001101011101111100
00100011001110101011000110110010
01100110000100011000100011100101
11101100110111000100001110101010
11011101101110111111000100110001
10101001010101001010001010111000
01001011001011010100001111110111
01011111001010000111100110111011
11011011101110110010000010110001
11000111001010011001110101110010
10100010011000000100000011011110
11011101100110110010101000011010
11011000101011110111011110110001
01010110100000110101110011100101
10011111111111111110011110000001
10010100111101110111010001101000
00000010110000000101111001001110
10001000111100010111001101010000
10011000100001101011101111100101
11100010100110100001100001111110
01111010010100010000110011001001
11011110100011100101101010001111
11011110110110111011010010111001
11101001010101000111101110000000
10101110101010110111110100111100
01100001011000010111000111110010
00001011000100010000001011100111
01111011010000010100000110111110
10111001111110110000000011000011
11110011111011011011001001011010
01101010000100010011110001110011
00010110000111110100011100111011
10011001101101011101011000111100
00100110011011111000010101110000
10100010000110000001001001100110
10111001011010111010000001011110
00101010000101011011000110100000
11101000010011001110100010110001
01000011001111111110001101111100
10100111110001101101010110110111
11100001110000001010001011011111
10110000100000101011001011101001
00100110110010101010100011001010
01111110110111000100101110110001
01011101000101110100001101110001
00100001010010001011010011110001
00100011010000010000111001001110
00110100000000100001001011101011
10110101110110011011110001100001
11100011000010000100101010100111
00110010001110010011101001111001
11111111000011000110000011001111
00111011101110110111011100110001
10100111000010100000000011101111
01100111101111011011010010110101
00000100010110010111011001110111
10001111010101111110011110010101
11110110010010111110011000010111
10011110100100111000101011101001
10110010111001100011011001001100
00110110110010001000110011011000
01001110010111110100111100110101
10011101011101110111011110110001
00111110110011111110110100110101
10011101101111101100011111011000
10100000011010111011010001100100
00100010010010000000110000001110
00001100011111010100110100110001
11100101010001000100001110011110
00101100111011100000100101110001
10011101000001110101111010001110
10110000111000110011001001101110
00110010010010000000110010001000
01001111001010010101011010010100
11011011111101110110010110110000
00001110000111110100110001111010
10000001110100111000100000011010
01111111010111001111100011111111
01011101110000010001011111110011
11001110010111010100101110111100
11011001111111110010011100110000
01100010010000011011010001110000
00000011010100010000101001001110
01111011010110100110101010111011
11011001101101011001011101100011
10000100001110000100111101110100
00101010011110100011111101001110
01001101000110110111100001001011
01101100101100110001011100101001
01001011110111010110101100111011
11111101101101111001011101100101
01110111110110110100000011010111
01111110001110010111010001110100
10001110100011100100100100001011
10101100111111111101010000110000
11000001001101000010001010111001
01001101011011010101000101001101
11001101100110010101101101011101
11011101101111110110010111110100
10100000001000001001010001110000
00100010010001100100100001011110
01011010100110000100101010111111
11011101101101111111011100110001
01011110110111000100111101000110
11011011011111110101001100110000
00011100110001001111110000101000
00001000010001001100000000101000
01100000011100000100111101110111
11100101001001101101101101100111
01010110110101000101000110110111
00000001011101111100101011010010
01110110100100011001010111111110
11010001011001101101000011000111
01110010100001101011000011011000
01010010011111110101001101001001
01010110000111010100000110110111
01000001000101111011111001010011
00110000000000110001010010110110
01100000000100111000101001010111
01111010110010110011000011111001
11110011110110111001011111100111
01011100001101010000100110110101
01100010001101010011100100110010
00010110100000110000110100110010
01100001000100011001101101010110
00110101110000110011001011111001
01010010010101111001110111000111
01100111000011010101100110110011
01111010001110010000000011010101
01001110000111110000110110101111
10111101111100111101010000010011
11101110101011100001001110101011
11011111100111111101011010010000
01000001000010010100100110001100
01001001101111111101001010101111
00100001011010010011010000110000
01100010000001000100111011001110
00011011111000101001110010110101
10100100110001000110111010001100
11000000001010010110100001000100
01001011011110011101100001100011
10011110110111100110010001001101
01010010011111011101011101111000
10001110011001101010011001110000
10000010110001100101001101001000
10001001000100011011101011000000
01101110010110010010101111110010
01101101010100110101111010001011
10011100010000010010100110010001
01001110010101010100111100111011
11011001111001101100000101110110
11101011000111010001011010001001
11101111110100110010101100110001
01001111010011010100110110011011
10011101111100110000001000010011
00000010001100011000110100110010
10000001001000000001001001101110
10001101010110010100111010000001
11001101010100110010101000011000
11100011010010010100110000110001
00001100011100110001000000001110
00110000111001111100100100111100
10101001111000011001011001001110
10100101100101100100011111100100
10010100110000101101010010011000
11110010100110001111001011011001
00001000000111111101010100100101
01100110010111001100010110110101
01010110011101110100011111110111
10100110101101000011110001100000
00100010010000000100110010011110
01110000100110100111101111101010
01011000101111111111010100100101
11001011010011010101110110110000
01011101111101110100001110110111
00100100101011100001100101100100
10100000011111100100010000011010
00110100111110110001110111101000
11101000110011011101111110000110
01100001011011101110110110110100
01101010010100010101101011001111
01101110000111101001101011001011
11011110011110111111110000011001
01101110010011101100100010001111
11011011011111111100101000011001
10100110100001011010101100111100
11011000101101110101000011011110
01001010000111110100111110111001
11001101101100110100101010010101
01110010011001010010110110111000
00011001111101110001001111000110
10110001011100011011011101110000
00101011000001010110101111001110
00110100111010111000111101110101
10100001001100011101101011100110
10110000011000111011010001100000
00100010100010000001101011001010
10110101111110110011001101001010
00101010100110011011011001100000
10011001010100101011111000001101
01100110100011010010100110001001
11101011010010101011001000001100
01001110110000110010000101111001
11101110010000001011111000001010
01000111110001001010000001001001
01111000010000101011001011001001
01101111110100110010111000111001
01111011110001011001001010001011
01001111110100111010011001110001
00101111110001011101000010001010
00001101100000111011011001010011
01111100101000010100001111010001
10111101000100110001111000111101
01110110110001110100010111010011
10010101001000111001011011110000
00100100100000111100000110110011
10110101001011010001011011100110
11101010110101001011001011101000
01000011110001100101000001000010
10001010110101001001011001111000
01000011110001100110010001000000
10111010010001001001011011101010
01000010110000100010001001110100
00010111110100011100011101100000
10100001101001101101011011100110
00011101110100101100011001100000
10010011000001001111110011100100
00110111100100010101011111100011
10010001000011101101010011100000
01110111100111110100011110110111
10101100001110001110101010111111
01010111100110110100111110110111
10111100101111101111111110111101
00010111100100110100001111110111
10101100001111101111111010110101
00110101000100001100011011100100
00100001000110011110101010001101
10110001100100001101011011100000
00010011100100010000001011101101
10111011110100101001011001100010
10110010111100011001011100100001
01110110010111100110101110101111
01101001100110010111001000111001
01110110110111100110001110111111
01111111111110011101011010111001
10100010110110101011011011110000
01110010110101000001011111001101
00100110011000110110100100110001
01100000000010001010100000010011
01110100000010110111100010011011
01101000001001001101110000011001
00111010010011101011001010110001
01111010111101010101011100111101
00010100110001110000111101001100
00111110100111001110111100011010
00010100111100010111010100010001
01110001000001000000101101101110
00011010011000010111011001010000
11110000110100000001011111000110
10000000010000111011110001000000
00101110010010000010100000011110
11011100100110110100101010011111
11011101101110111011011101110001
10011110010111110110110100010011
11010011011100111001001101110000
10000001000000001011001000001001
01110110010111100010100011011010
11001011001100010100111110111011
11011101111001100010100111101110
11011010111000110100110010110110
00110011011100000011111101011011
00010010101010110010100010010111
10000010010001011101110001001101
01010111001010100000100010010101
01110010001001000110100101001101
01010100001010110000100110011111
01101100000111010110101110011111
10001010100100101011100011001100
01000010111101111111000101001100
10001011011110001011010010001100
01010010111011001110100101001000
01000100001011001110100110001100
01101000111101000110100011111011
10111011010001001011000011000100
01000010110001101100010111000100
10001011110001001011001011001100
01000010110001110110001101010000
01101100110001001011000111001000
01101001100010100010100001010010
10010010001111110010100101001111
10111100101010100001010010101001
01111101000111010010011011000001
00010111001011100111011110101101
01101011010010001111011010110001
00000111000101110100011111110110
11110010101000110001110101111111
10100110110010000000100000001111
11011001101011100111001001011101
00011100110011101111011100101101
01111011110111100110011010010101
11010111101101111101011110110100
00110101001000111001010100111010
00100000011010000000100001000111
11011110101000110000001111111111
11111110100011100010110100001001
01111011010101100111011011011001
11010111101101110111010110100001
00011111111101011000011101100000
10110110100001101111111100101110
00110001111100001010010101110010
00100011000101001110101010001110
00110101011000011001010100110010
00000101001100011010101011000110
10100101101100000110011111100110
00111110000110101111110000101110
01110101100110000110011111001011
10001110001111111111001000101001
01100111010111101100010110110111
01001101001100111010001010100011
11110100101111100011010011101101
01100110011010101011110000001001
01000011000010000010100011001111
11001110001110111011000010111001
01001111000111001100100110111111
01011101001110111011001000110001
00100110010101011101010110101101
00101101100110101010001001010001
00110110010111011111000111111111
00101111100100110010100011000001
00100010110101111111000011101110
00101111110000101000010001000101
00100100100111010100000001010111
10101101001100001010100001010001
01110101100110110100000010010111
10111101101110111001010000000101
01110011110001110110000110010111
10101111010000011000011011001001
00100100111000010110100000010001
11101101001100001011111000011100
01110100100010110100110010010111
11111100001101011111100010001101
01110111110010110110110010010101
11001110001100011101010010001100
00000110100100000001011001001100
10110100101110110010100110011010
01011001110100000110001110011011
01111101101101011001111110100110
01111011010101110101010101110000
01111111010100010101011110010111
00100100001010101011000001100100
10111110100010000011100000011010
01011000100110110110101110001111
11111101101110111011011100100101
01101010110011110110010110110011
01101111101101011101101110100111
00000101101000001001000101001000
00101110011100000010100000011010
01010001111110100101101110011111
11111101111010111011100010000111
00101010101011110100011110011010
00101110111000110101111110001111
10000101001000010111101000001110
10111011100010001000011110100110
01000100001110010100101000001111
01011001101110110001011110100001
01000010011001010100010100010110
01101011001100110101011000110111
10001000001000101000111001001010
11011110011011000011110010000001
11011110101101100100101100011111
11011100111011101111010100010001
11011110001011110100010100011111
11011101101001100101001111001001
10001000111101001011011101011000
01000111100001101110100111000010
00010001011100001011010110110000
11010001110001000010100111001110
01000001011100001111000110111000
01100000110000000010100011001110
10100101011011110111100001100100
00111011000110000000001000110111
11001000011110000110101101001111
11101110001111011010010110100111
10001111011111000100111111000000
00100110001111010011111100110110
11111010000011110100000000001111
01101111001110010000010001110011
11001110001111100100101000001111
11111110101111101110011100110001
10001010001001100011111001010101
00100110010001100001110100011001
01010010011001111000100110111011
11010001111101111000001111010111
01110010011001001011010100111000
01110001110001000000100011001111
11011000011001101011110011101100
00000110110000110010110111001001
10001101000110101000011001100110
10110010000011000111110100111000
10011110100110100100111110001110
10010001101011101111011100110000
10110000101110000010011111010111
10010011000011001111100011011100
11001101000110001111011111100000
10110001000101010110010100101000
10100010001100001000110001110010
10100010010000000000101011001110
01110100101100000110001110011111
11010001001100111011111010101001
11001010000011110000100011100110
00101101011110011000001000110011
11110010010011110000000110101100
10001011111110010000001000010011
01100110001011010001100100111110
10000101101110111000101000011011
10011101100100000000011110100010
11010100000001011111100100100110
00100101001100001000111111110000
10100111000001001110100010010110
00110100111110110100010110110010
00010001000100001100101011100110
10011111100110100101111011101111
11111100101110111011010110110001
10000001000111001100011011010101
00001010011111110110000001110101
11011111000111100100111111111111
10011111111111111100001001110001
11110001011110001111000011001101
00100110110010011010100111001011
11011010100110000100100110001111
11011010111110111010000111011001
11000010000000010000110111011111
00011011111100111100101011011111
11011110100111101110111111001110
10011011101011001111011110110001
10110100110101111110011111010000
10000101000011001111011101111000
00110001010100011110011010110001
10010001000001000110011111000110
00110101011000001001110111110010
11100010010000000010100011001111
11000001001100000101111001000010
11100100010101001111110100101101
01011001110111100100111110111011
11010100001111111111011110100101
01110001011111101011000110001011
01110000000010000000100000110011
01111001011110100010000110111010
11100001101010000011110000101001
01001011000111100000111110111011
11010111101011110110011110101011
01001010110010001111000100101010
11010011111111111101110101100111
01100110100010011100010100111010
01010010111000100100000001001000
00010100101100011110001100011000
11000000101010001110100001001010
01111111111011101000010110101000
01010001111101111101111111110110
00100011011000011011010100110000
00100011000000010010101011100110
01110101001000111001000101111010
01111010100110011010100001100011
10111011101111101000111011100000
00100010100110011111110111011010
00111001001011001010001111100010
00111001100110010011011001101110
01100111011000111000001100101010
01101011101110010110101011011110
01010100111101111010010101111010
10010011101001000111101101001010
00000100011101110100110101110010
10000001000001000110101011001010
01010000110100101101100001111011
10000001010001000000101111000010
00010001011100001110001100010000
01111110100011001110100111000110
00010001011100001110011101110000
00100010000000000110100011001110
00011001011100101101011100110000
11110011100001001110100111100110
10101111000110000110001001001111
01101110100110011111110000100001
10101111100111100110001000001101
01101111101110011111010100100001
00101111000101100110001010111111
11001111101100001110101000111001
11000111000010000001101100000100
11100001110010100010011000110010
11000010010111001011001011001100
00001110100111010111110100100000
00001111010010011001011111000100
01000011100100100000010000111010
00001000001010110000101001000110
10110110011001000011110000110001
11001110100111100100101011001111
10011110111111101111010100110001
11000110101111010101111011001110
10010010011111100101011000111000
01001100111101101000110110110011
10010000011001101100101111000110
01010100101100100001110111110001
10110100010001001000100010001110
01010000101000001101110111111011
10111110010000000001110111001111
00110001010000111000010101001010
00101110110011011110110000011111
01110011010100011111010000111010
01110111111100110110001110100111
01011111000111110100101100111110
01011101111101111101011110110000
10000011001000110010110001001000
00101110000111000110100000011101
01011101001010110110101100011011
11011111101111110110011100110100
11000011011011111101110000110010
10000011111001000100001010011110
10000100000100001011111011000000
11110110010001100111011100101100
11001100001110110100111011010001
11010010101011011011011100100100
11000011011010010100010001010001
00010011011001010101011000001100
11010001110111100110000010001111
01011100101111010111010101100001
10000110100110101000110011110001
00000000001101001101110010010000
11010100000110001100001011011111
10010000001101111101010111110001
01011101101100010100101110111111
11010001101101010111110110010011
10100000001000011101010001110001
00100010000001000111110001001110
01001110101100111100101010111111
11011100011101111111011100101101
00100100010111000001111011100100
00101001010101011111101000010111
01011100110110101110001110101111
11000000111110011111011100110001
00000110011111001111111101110100
10101011000001110100001011000110
11011000001110011011011001010000
01100110001011010111110101100011
10011110111111111000111001010010
10010000001001101111010110010001
00011101100100011001011001010001
10010101000001000111010111111000
01011110100111100100001110011111
11111101101111111101001110100001
10100000011100011101010001110000
00101010010001000100101011001110
00011101100110010100001110110001
10011100000101011111011110100101
11100010011010010101100110100010
00101101111110010000101011010111
11111010100011110101100100111110
01101101111110110110001010110101
10100001001101010011101101111011
10001101101111111000001010100101
00101101010101011011111001000000
01010001010000101001100101110110
01000001011110011011101100001000
11101001100010110010100101000011
01100011011011011011100100010001
01101001110100100000100001001110
10101001011110101100011001000000
01010000010001000001000101110100
00011110001111111100101100000111
11011101111010011001011101110001
01100110000011111100000100000111
01101101011110100001110000011010
10001111100101101100011001001011
11011101101001101111011110110000
00100011001100011010111011110000
10100101000000000010101010110010
01100111101000011101110110000101
10101101011110001111110010011011
10000001011110110110100000110011
11110000111111011111100101000111
10001111001000101001111100010001
10110100111001000111110000011010
10011111101011100101111001111000
10000100010010000010010111011110
01001011100110001110101110011111
11111101111111111101001110110001
10000101111001001010011110110001
00100111010001110110101111011010
00100101011000011101010001111100
00000111110000000010100001001010
11100011000010001111000010110111
01100101111100010000001011000111
11111010011011011110000100111101
00101101101110110000111110110001
00110111000011010011000100101110
00100001101110010010000010011000
01110010011010111110000010010111
01100010011100011000000111111101
01111111101111110110001110001110
01001101101110111001001101110001
00101011000111011010000110110011
01001101101111111101011101010011
11010111101001110000110110011111
10010011101111011111011110011000
10100011001000000101110011110000
00100010010001000000101011011110
11011001101110000001101010001010
11111100101111011111011110100001
01010110111000111000110101100101
10111100010011101100111010011010
10010000111101100101111111000010
10111010110001100011010000000000
10001000101100000111111111000010
11011110010011010011111100100110
00100000110010011110010000010101
11000000000001001100100001001111
11011001110100001111000000010101
01011100111011000000011000101111
10100111110110101100010001000101
01110110111110101111011010011010
01101110110011110100110000111010
10000001111001101100011000110001
11101011110011001010111110100111
11011101101011101001011100110001
10100001010000001011010001100000
00100110010001100110110010001110
01100001011001010111110100110000
00110011010001000100101001011111
01111011011001111001111011111010
10111100001010011001111100010011
11111101100001101001101111001010
00000110001110110101010000111000
10000110000110000110111101001100
00000010010001100110000011110001
00011010000110010110011101011101
00011010100011100000000011101101
10011010110110100010110001001100
10010010100000001101010000110101
00001101000011000100000100011101
01001010011010100010000010011001
01011111100011110110111100011101
00000011101011001011010100111001
00010011100001110110000000000111
01000010111001001111010100011100
01000101100000000100000100000001
11000101011011101011011010001001
01010101110000000111001100010001
01000001001000100011110000101101
01010101100011100101000100010011
01101101001000100011010100001100
00010100111100100100010100010011
01010100100001001101110011001101
10010001111100001111010001010000
00100100000001000110110001001110
01001001111000101101110000101010
10010100010001100111000000101100
00111001110110101110001010010110
01111100111111011111110100110101
10001110110111100110011110001111
11010100111111111111011100110001
00101111011101101110110110110000
10000111010001000100000000111011
01111001000010001001000110110000
11111111011111010110010010000101
01001111100000100010111110110010
11000100011101110101000010011101
11111011011011001110000010101000
01000101010001000100011111110000
00000010011011011110110100110100
00001001111000101000001000011011
00101001111000011011011100011100
01011011000000000000010111001110
10011101111000111001111001001000
00111010110000001011100100001010
01000010010111111000010001101100
00101111010000001001001001011011
00011111110111111110001110001111
01011101101110111011011100100001
10100101110001101011011001100000
00101111000010010011110011001110
00110011110001001110000111111001
01101110100100100010111011001011
00100011000100011001101111010010
10111101101000000010111111000111
01011001100100101001001000001001
01111100110100011110110100000100
01100110100101001101011011110001
00000001010001101000100001011011
01110110100101011101011111110111
10010000110000101000101001100010
01110010100100100011011011101101
10010010111001111101010010001010
01110100100111010000101110100111
00100101000111001010101000011011
00110110101100010000110100110111
00100001101011001000101011010110
00110010111000110011000001111011
10110011110111011001111110100110
01011111001100010000111100111001
01100101000001000010101110011010
00110001011100110010110100111011
01100100001000001001101010011110
00111011011000110010010100011010
01100100101111011001111110100110
10000001011000011001010010110000
00110011010000000010100011001110
10011000111100110001111001011110
10010100111110001011010100110001
11011101100111100110101011001011
11010010101111010101011111110001
00111110110111111110111110111101
00011001001010011010011000011000
10100001001100011000100101100010
10000001110000001000100011011011
10011001100110100111101010100010
01111100001111011111110100110000
01111111100000010100100100111111
00010101101100010010101110100101
00100001010010110011000010101000
01100011111100001101100011000110
10111001010111101110111110101010
11111011111111011001011101110001
01111111011011110010101100111010
00001111111110110000001001111110
01101111011111110000101100001010
01001101111100101001001101110000
00101001010101011011011100101000
01101011011101110101010101010010
00110101011001010010000100011001
00011001100110110000101010011110
00100011011000011011010001010000
00100110000000000000100011001110
10011010100110100001101001001111
11111100110111101111010110110000
00011111000010110100100101011001
00101101101110011000101010101110
00011101110111100010000000000011
10001011101001011111011101100100
00000010110100000011111001000000
10110010010001101111100001001110
01011101111100000100110110110001
11111101000001010110101100001100
01011100101100101100110110110011
11110101001001011110101110101111
01010100101100110100110110110101
10000101000101011110101110001101
11011011010011101011000110001101
01100101100110010010110100011010
10000001001110001010010100011000
01110110011110010110101110011111
11001100011010100010100110111100
01111101101110010110001110001111
11111011010011011011000011001100
01000010110100110000000101010011
11111011010011001011000010001100
01000010110110110110000101010011
10001011000011001011010011001100
01010011110001110110000111011011
10110101100110000001001011000010
11110110000110111001100110100110
00111101110110000000010111110011
00011001001111110100111110100110
00101111111110100100111001100010
10010010010000000010011000111110
11000000001010010011100011001010
11101110011110000001100100110011
11011110101111110000111110001011
11011001101111110101101110110010
01000000011000110010110000110000
00100010011000000000111000011110
00010000001010001011010011101101
01101110111111001010110000001010
01000000011110011010111100111101
01101100111010001001101010001010
01010000111001110011100100011111
00101010001100110110101100001111
10010100000111101010010001001100
01100010011010101010100011001001
11110001000000011010000100011101
01011001010110111000000101001001
10110011100001010011011001000101
10111110101010111001111001101001
00110000000011011011100001001010
01100000000010000011110000011010
01111100100001111000001110001011
11111001100110111000101111110011
00110010010001110011000101000010
01101110100010110000110000011111
00110100111001011000111101100000
00100000010000000011111110111110
01110001011000001000001100100010
11111001000010010001111011110110
00110101110000001001000110101010
01101101001110010011111000110110
10111111110100010110000111001101
01111001101111011111011100010011
00110101111100000001010111110000
00111000000001010111111010001111
00010101111100100101000011110101
10011110100001111111110010101101
00101111000100100100000011001101
01101000101010001101101000110011
10111100100110100110000011001111
10111000001111011111010001101001
10010100010100100000101111000111
11011110011101011111010000001101
00100000010000010011000011001101
01101110001100100010100001010111
11001010010000100010101011101101
01101100110101111110110111101001
11000000000010000011110011011101
00000110010101110110110011001111
