10011111100110101000010110110101
01010101100001101001101110010010
10111000001110101100100011101101
11100111100001011000100110010010
01110111101010000101000111111111
11110111110101011100100100100100
00111110101100100100011101100101
01110110010100101001100110010001
10110100110111101101110101000101
10010101100000111011100110010111
00110001100111101111010010100101
10101110100001010011100100000111
00110110001100100110110010110101
10001101011101110011100000010111
00110100010111101110011111010101
10101100001111110011100111000111
00100001110111100111010110010100
10101100101111011010100100000111
01001011000011111111100000110111
01011101111010001101010111100100
01001011000011010110101100111010
01111111111011001110010101100100
01000111000110011001100110010010
01010111011111000110000111100110
01100011000111010111001110010110
01111101011110011010000101001110
01001011000011111101001110010100
01111100011011110011000101001111
01000011000111011101101110010101
01011100011010100110010111000111
00000010100011110011100110010100
00111001111011100011011001000110
00000011100001110011101110010000
00101111011011100001011101001111
00010011010101111001100111010001
00111110011111011001011100000000
01000000111001111011001111110011
00000000001011110011000101011111
01001010101001110010101101100011
00100010111111001001010111000100
01010011101001010111100101111010
00001011111111000101010000000001
01011011101001000001000001101111
00011000111011001001011111000101
01001010001011000111101100101010
10011011111101001101010011100100
01000011001011010101000110001010
10010011111001011110110111100100
01000011010001010101001001001110
01111111110110011101000000100100
01000111010111001101011010010100
01011100111011011011100001000111
01011000000011001011011100100011
01011100001010001011110101001010
10111000001011000000101011011010
01010111110000000010111110110000
10110100000101101010011001010101
11011111010111110010111100100100
01110100110111101011010000000101
11011101000101110000110111001111
10011100010001001010110011111010
11010001010101110010111110110000
10010100000001101000011001010100
01111111010101110000101000110101
10011100010111101000011011001011
01011101010011111011111010000001
10011000000101000010111011000001
11110111010100100000001010110001
10010100000001000000111001011101
00111111010101111101101010110011
00010100000001001000001011011111
01011000010111011001101110000101
00001101111000110010101101101000
10110011010011110101011011000011
11001001111100100000000100000101
00100011101110110001010010011010
10001100110000110010110100101111
01000100101111101001001001010011
11000011111111000011001001101010
10111111111100000111101010010100
11000111111110100011001100011101
00101111011110110111110000011110
11010010111111100010011110000100
00000100101010101011001000011010
11100010011111011111110000111001
11101001011000100110100011001110
01100111111111101001000000011000
11001101011000101010100001001110
11000010111111101001010000111000
01001001111000101110001010011000
00111100101100010111011011110101
10111011000111110001001110000010
10110000110111100111001010010101
10101000000111010010011001001010
10110000111010100111001000100101
10101001011110010011011000001001
10101010001011010111100001101101
10101011100100011100101011110000
00111011101011110101100000110000
10101010000100010110001011101110
10101010101011111111101000011111
10001010111100000100001101100110
00100011100011011101010001011000
01000001100000000110101111100010
00101011000011011101100101011101
10011001100000010110101101100110
11100011000011111101000000011110
10111001111000000110100101101010
01000000001110010111111001111110
01011010101100111010101110001001
01001110000111010010110000101000
01011011101000101110101111000000
01000111100000000010100101111011
01110011001100100100101110010010
00000111011101011100011011110000
01001000001110111000101101000011
00001011100101011000110100110001
01111001101100100010100011000010
00001111000001000000100110001011
01011001001100110100101001000111
00000111001001110101000011010100
10001001101111010100011101000011
00001011010011010100000110000000
01001011101100000100101001000000
00001011000001010100000100101011
10001001101001100110110001000000
10100110110100111110110011000010
00100110100111010101010011001110
01101100110100011101010001010101
01001110000111011000101011001011
11111000000010011101110000111101
01011100110000001010101111110011
11100100001000010111101011111010
10010111110110000101001111110100
10100100100101110110011011010000
00100100010111010101110100011111
10101110110100011100110011010101
00101100000111111000000001001011
11101010100111000000101001111010
11111000111000101110001111010101
11100100101000010111101001111010
10011011110110010100011101110100
00110110100000100110111011100010
00010111101111110001010100111110
10101000110111101010001100111111
01101111000000111000111100011000
11110011110110111000001010111111
01111100101000110111101111010011
10110101110111101000011110011100
01001100100110111011101000011001
00110011110111111101001100111110
01011111011000111110110101011111
10100011110111111101001110011110
01011101011010110011111011001101
00110111110111111101001110110101
01111100101011111011110101001001
00100011001111111111001110011101
01001101011101101100100001000101
00100011010111111111000110011100
11111100111011110110100101000101
00110111110111111101001110010111
01100100111111111011101001001111
00001110100110010000110111010111
01010111011110101001011011000011
01001111000000010010011110000111
00110111011111100000101001001010
11011010010110011010011110010101
00111100000001100010100001101010
01000111000010011000101100111011
01110110011111101100010111000010
01000111000010010010101110101110
00110011011110100000010101100000
01000111110110010100111110100111
00110100011111100011010101101000
00010011000111011011111100011101
01111111011100101011100001000111
01001111000111011010001110011001
01111101011001101110100011000101
01000111001110010011000100101100
01010000111100001010100111010101
00111011111001110101101100101110
10101001001000001011010001101111
10101011110010111011100110101010
10000010100100000101011111011000
10111001110010111001101100001011
11001000100000001101101011111001
00101011110010111101100100001010
10001111101000000100111111101100
01101011110010011101101100111011
11000011100000000110000001111100
11101110110000011000101110000110
11000010100000000101101111111101
00100011110000011101101110011010
11101011101100000001010001001100
00100011110010111101101110100011
11000001000000100001000111011101
10101001110000001110101111100011
11010010100100100001011011011111
00001110101000100100110101111111
01111111011010110000011001101111
11100001001011100111001110011110
00111111011010010010011101001110
11101001101000000000101110110010
01110111111010011000011110011000
00100001100011111101011100001011
01111111011011110010110001001010
00100011000011110101101100111110
00111111011011011010110001101110
00100011001011110111100100110110
01111111111011010010010001101111
00110011100011111110010111101001
00000101011011000011110101001000
00110011000011111101000100010010
00011101011011000110110101101111
00010010000011111101000100011110
11011101011011000010110001101101
00101101010111101111010110100101
00100100101100110000001101001111
01011011110001100110111100101000
01110111111100000100000100001100
01010101011110100010111100110110
01010100100001111101000010100111
00100001110101111011000110100001
00100101111000100000010101001111
00110011010001100111010100011000
01110111011100100100000100100100
01100111110110111001101100100111
01010111011011100011000011001101
00100011011011110011000100101000
10100011101000100010010101001110
00100011111001100101000110010110
00011111011001110010010101101100
01100011010100110011101110110101
01010110001010100011110101000101
00110100100001110001010000001001
01101101000001110100011001011001
00111000001100110101110001001111
00111110111111001100011111000010
01001110001010010101101000111110
00011011111101001110001001110010
10111110001001111010110001101010
00111111111000011100001111110001
01110110001101011101010011011110
00010111111000011100100010100001
01100110000110011101011011011101
00010101111110001010100111010011
10110110001011011010011011111000
00100110111110010100011001011101
00000110001011111101011111010101
00100100001111010000110101011011
10100111001111111101011010010110
00101101001110010010100001000111
01001010001011011110110100111110
00010100111001111111011001100111
01001011000010011110110100111110
01111101110011110111111001110011
10001010000100111100110101111111
01011101110001111011111111110011
11001111000010010110111100101100
01010100111011101111010101110110
01001011000110011010010100111111
01110101010011101011011101101001
11011111000000010010111110101111
01010101010011101001011111110010
11000110101010011011011100010111
00110110010010111001011111101111
11001111000000011010001100111111
01110111010110101011000111011111
10011110101111011100001110011110
01110111010100101010101111011111
00110101100100000011011110101011
01100110101111011001010110011111
01110001100101100001010110101010
01000111101111111011010110001001
01110000100111100001010111001010
01100111111111111111010110001001
00110101100101100101010100101011
01000101111111111001100100001101
00110001100101100001010101101011
01000101111011101011110110001001
01110001100101101111000101100010
00000100111111111011110110001001
00110101100111001101010000010101
01000101001010101011100000001111
00100101100101101101010100111110
01000101111111111011110110001001
00100101100111100101010101001010
01001101111111111011110100001111
00000111111111111000010110110101
01001000000011111011000101100011
10011011110000100010101110110001
01010011000000100011010100000000
00011001100000111110101110001111
10111001110000100111110101000000
10011001110000111010111110111011
01110001111100101010011110010011
10011011001000100010101100001100
00110011110100101110001000110100
10010101010010001000101110001100
10110000010101110110101001100111
10010000011001000010001010101010
10110011111100111100001100010100
10010101010010001000001010011100
01111001000000110010101001110111
10010101110111111010001100110111
01110101000001100011101101100111
11011001001101000011001001111100
01111111010010110000011110101111
11010000001111000011001001011111
01111011010111110010011100110110
11011100001001000011001001011101
01011111010110111011011100111110
11011100001111000011011001111100
01111111010010111000001110100100
11011000101111000011101001110101
01111111010110110010011010110110
11011100101111000001011011011100
01111111010110110010111100110110
11011000001101001000111011011010
01011111100110110010011110000110
11011000101111000010101011011101
01111111010101110000001110110010
11010000111011000000111011010101
01111101000111110010101100101011
10111100111100100110111011110100
11100111100101110100101010111100
10110100110101101000010001010000
01101101110001110000101010111110
10110000110101101111010010011110
00101100010001111111101000011110
10110000011100100101110001110010
00011111110101101110001010110000
10110100011100101110110001000010
10111111110101110100011010110000
10110100010101101100111011011001
10111110010101110100011000111110
11100000001010101001110001101011
01001110110001111100100010111100
10110000001000100100110001101011
00001111110000111110100110110100
00110000101000111110110001011010
00001110111001101100010111111100
10011000101100011000011011110000
00010100110011110000101010110100
11111000001100011110011001010100
00111110010111111010110010110100
00110011101100001100011011010101
10111100010001010100100001100110
10001100000101010000110011110101
00011100110111110101011010110001
10111100000101000010111011010100
10111100010011010101010100110011
00100110000111101111110001110101
00001100010011110001110001100011
10010000100011100011111011110110
11010110110111110100000100100001
11101100001011010111110001101011
00111111010111010101111100110011
00000010101011110111010101100011
00001111011011000001010100101011
10100000101100110111110001101000
10100100110101000110001001111001
10110000100100010111100001101010
10100111110101010001011101111000
00100011111100111101001111010101
00100100110111010001010101111110
11110000001010110111111001101110
11011110110100110010101011110001
11110000000111110111100000101010
10001100110001001110101111110100
01110010101000110111001001011010
10101111110110010100010101111100
10111000101110001101110001111101
01001100010000111011101010010010
10111000110111111111110001001001
00001100010001111010101011110110
00110010100100111111001000001011
00110101110101010110000101110100
01000010001100101111011101010010
00111111010010111001010100101111
01100001101110101111001100000110
00110111011010101011010000001110
11111010010000100100011100100010
01110101111010011010010100111001
01100011001111101111001100011111
00111111011011100110010000001110
01110011001011101111001100101110
00111111011010100111110100101110
01100011011100100111101110101010
00110111111010110011010101001100
00110011111111100111001100010001
00100111011000110011010000001110
01100011111011101111000110001000
00011100011111000111110101101110
00100011010000100110100100100010
00110111111100000110010000000111
10101001110110111101010100110111
10011100011111111011111001001111
10111010011100111010100100000010
01011111101011101101011011010001
00101110001001110000110100001010
11011111110011101111001011010001
00110011111110110111000110000101
10101110101010111011011001101110
00101011101000110110100110001110
00111011100000101111000001111000
10101111011000110100111110101010
01110111110100100110001011100100
11110001111101101100000110011100
10111110010100010110011011101110
11111011011000111000101110011101
11110011010100111110000011110100
11101111011001110010101100111100
11110011110100001000011111110100
01010101010010001010000101000100
10100110010010000101001000011101
01000111111010110111110100101010
10000110001010010101010000100010
00000110110010110111000100101110
10000101101011100001011101011011
01001011111010000110100101101011
10100011101110000101010010111110
01000111111010110101001100000101
10001010001010010111010001101110
11000011111010110111100100101011
10000101001010000001010101011110
11001011011110000100111101001011
10110011000000100101000000111110
01100011111111111111001100110101
10100000001010000111010001101110
11000011111000110111100100111111
10100001101010000110011001011110
10011101100101110010111000010101
00010100011011111001001010101010
10011100100111010000110011111101
00011000010011111011001010110011
00001100001111010010110010110001
10011001011000110111001000100011
10011100100100110010111000010100
00011100010011111011101000100010
10011101000010100000110001010101
00011101010011111111101001110011
10011100000010010000110001111001
01011001010010100111001011000011
01011100000000100010111000000001
01011110010011101000001100110011
10011100000010000000100011000111
00011101010010101001001000010011
10011100001011000010110001101011
01011111010000101101001010100001
00110100011000100001010001000000
10001101010100111001110010100010
10110001111001101001000111000101
00111111010100010011110000001010
00110001011000101001001110001101
10110111111100110011100000010000
00110001011001100001000100000011
00101111111100110111010010001110
10110001111001101011000100001100
00110111011100010111010000100110
01110001111011101011101110010100
00110101110101011111100000100110
00110001001001100101000100000011
10001111111101111111010010101100
11110001011001101011101111011110
00111101011101010111000000100100
11110100011100101000011110010000
01010100000111010001000100000001
00111100110110111111011010110010
10011000000011111011101001011000
10011010100001001111000011001011
11000010100011001100011111110011
00111110001101001101100001001010
10000001100100000110001100111100
10011000010001110000010011000011
11001000000011111011011101010011
10011000000001000000100001101011
11000010100010011000011110110011
10011100000001000100101001011110
10101000100100010110111001111101
10011000111101110000010010100101
10101000000011011011011001011011
10011000101001000010001001101011
10100010100100000000011110110011
10110000111001001101101011010111
10101011100101010110011101101101
00000011111100100000001110010001
01100111100100111000101100010011
11000111111100100000000100010101
10110010100100111001000001011110
00000111110100100000001110111001
11100100000011100001000001001001
10000011110100110100001100011101
00101000100100110010100101011101
10101011111100110010001110110000
10100010001100110111000000001010
00110111110100110001101110010101
10101000001100100011000001001111
00100011111111100100001110011101
10101000001100100110100101001100
00100111111101111101001110110101
10101000101101110010100001001110
00100111111110100100001110010101
10101000001101100111100001000111
01100010000011001111110000111010
10011101111000001110101101000101
01100100001010111111111001000011
01010111111011001101010111110000
01100110000110110111010011100001
01010110010010011100000011110010
01100000001110011101111010010101
01001100011011000111000101001010
01101010001110110111111000111011
01001101111010000111010101101110
01100110001000110110011001110111
00100100011010000101110101101110
00110000100010100111101011001011
00010010111110001101010101001100
01100010000010010111101000101010
10000011111100001100010111100100
01100010000000110111101001101010
01111110111111000100011101110100
10110001010111101101100100111111
10011110000001001111000000100011
00110000010111100101010100111001
11011100111001100011001110011110
10111001001011101001101101111010
10000011111000100110011110000100
00110000110101101111010110100001
00111100010001110011110000001010
10110001111001101000100111011001
10011111101000101110010010000010
11110001011011101101101000111110
10011111110001001110100010100001
11110001111001101010111101001010
10101101010100110101011110111000
10110000011001101101111011001110
10111111110101110111000000100110
00110001010111111101101011011101
01010100100101010011100110100111
11011101100001000010111110001010
10100011101110100000010110111001
01000111100011010001001110100010
00100011001111110001010001101000
11000101111011000000001110110010
00010011001111110000011000101001
01001111111011011000010100001001
01101000001111110011000001111000
01000111101001010000001100101011
01111011001011111011010001101000
11001111101011010001001110101011
01010011111100101010010111111000
11001111011110001000010100001001
01001000001010111011111001101011
01001111001110011001010100001101
01010010001011111011100001101010
11000101010011011000001110001101
01010010100101101011100001111010
10111000001010101000101010100101
11110000111100001111101010010000
11111000001010100000100000101011
10110001111100001110101110110100
01110110011010100100100110001110
10010011110101000111001100110100
00110101011111101000011110000100
11010100100100110010101000010110
10110101010111101000010110000101
11010100100100101111101000010101
11110100010011101001100000111101
11110000101000101111101100000101
00010110011111111011001011100110
10111001101101001010111100011110
00110111110111101011001110111110
10001000101100100011100000000011
00100011110111101111010100110110
01101000101011111011100101000110
11001100000101010011111001100010
11100011100110000100111100010100
00111100110001010111110001010111
10101000001110000001101101001010
10011111110111001101110001000011
01001001100111000000101101011011
00000110000011010111110011110110
10100001000111010111100101000110
00001111010001010111000011110001
11101001001011010001110101011011
00100111110111010111000110000011
00101000001111000001110101011011
00001111010010010111111111100101
10100110000111100100000101001001
00000111000001010111010000100001
10100011001111000001000101001001
00000110100111011101000100101100
00101011011111010010010001101010
10111010110011100011101100011010
10110011010101000110010101110110
10110001110111100001100010010001
10011000010001000011001000111111
10011000110111101010110101001011
11000100001000101101001000010001
11011000111001001010111001110010
11011111010101000110011100110100
10110000110011101000101011010101
11010100000001110011001000111011
10011000010011001000010011001011
11011100010000101011001110010001
11011000101101000000101011110110
00111110010101000011011110110101
10010000111010100000101011010001
00010110010100110011011100010111
10010000100100001000010011001111
00010101010000101001101010010001
01001111001010001010101100011101
11110010101001110111000101101101
00000111100000010010011100001111
01110011111011100001010101000101
00000111100100110000010100001110
00011001011011111001011101001001
01001011001010011000001110011101
01010010011000101011101011100111
01001011001000010011001100011101
01110011111010101010000101000101
01011111101010011001100100011100
01010001011010100111110111100100
10001011010100011000100110110101
01110000001110100001101011101011
01001111000100011011000100011101
01111001011011101000000101000101
11010011000111011001000100011100
01011001111010010011101001001100
01100101001110000101010101011010
11011001011110001010110110001001
11011100101111001001000001011000
01000010101110101000000010000001
01010111001100001000001011011100
01111010111110011000010010000010
01010101101101000101010001110101
11001000001110001010111010000011
01011100101101000001010011010000
01001010001110011011110010000011
01010111101101001001000011010000
01001000001110011010110010000011
01011111011111000001000001001100
11001001101011011010111010000001
01011011011101000011010001001000
11001000101111011000100010000000
01011101011001001101000101110001
10001010101111011110010010000001
10001101001010001010110110001000
01010010110011101111000110100000
11110101001110101000000000001000
01000110011011100111010010100010
01100100111010110111100010000011
01000100011011001111010011100010
11010101001110100000100010001101
01000000010111101111010110110010
01110101101010100111100110101101
11000010010111000111010010100010
01110101011110100111000110001111
10000100011011000111010000100010
11000101111110101100000111011111
10001000000110000111010010100110
11110101111111100111101100001101
10001000010000000111010010100110
01110101011010111111000100100110
10001000000100000111010000100100
10111011110000100110011100011110
00111111110110111000010000011100
10101011110000110000111110010100
10111101000110101010101011101100
10011010110001100000011100000001
10111111000101110000100111111100
10100011110000111100011110010100
00111100001110110010001001001101
10100011110111111100110110110100
00111100000111110011101001101110
10011001110000110010110110100000
01111101001000110001001001111111
10101011110101110011010110110100
00111100001000100011011001001110
10101011110000110000100100110000
00111011001100110011011001101010
10111000111000100100100110101010
00110110010001100001001010010000
10111000000010100010100000001000
11011111111100101100001110010010
11110000001010100110101110011110
10010111110100000110100110110110
00100101010110101110001110011101
11010110110101110001000101000001
10110001011010100100111000111110
11011110110100101110101010110001
10110100000111101110010000111101
10011100100000111011101110010101
10110000101100100000011000111001
11010110010100111011001110010100
00110101010111110000010001110101
10111101000101110010100101010111
10110001010111100010010101110011
01101100000010101011001100001011
10111000100010100110100001011001
10101111000100101100011110000100
00011000011101100011110011101010
00001100101100000101000110011000
00110000000000101101111001100010
00100111111100000101110100110000
00110000011000101011001011101010
10100100111110000011011110001001
01110000101010001101010011001010
10101101111100000100100010001100
01110000111000101101001010001010
10100101111100000110100100001100
01100111010100101101011110001110
00100100101101010111000110101100
01110000000100101100010011101010
01000110111000001011100110011100
01110000001000101111010001101010
10100101101100001111010100011100
01110111010100101111011110101110
01100100101001000101010100011001
01100011010110111101001100100111
10001000100101000011000101000110
01100111110110110101100100110101
11000000100110100111011111010111
11101100010110100100100100101110
11000000101011001101010110010111
01001111111110110100001110110101
11001000000010100011001001011111
11001111110110010100110100110111
11001010000011100111001001011111
10101010111010000100100100100000
11001011100011100111001011011100
01001011111101011000101110110101
00001011001011101111010001001110
01001011110110010100111100110000
11001001000011101001011011010100
10101011110110000100000111100011
11001010001101001000001010011110
00100011000001111101010100000111
01101100011011100010110001011010
00100011100011111101011100111010
00101110011011011110010001001100
01100011010001111100011100111110
01100111111011010010110001101100
10100011001001111111011100011011
00101110011011111011011001101000
01100011001001111101001100101110
01101101011011111111010001101101
01100011101101111111001110110110
01101111011011010011010001101100
11111111001001111110011100011001
00101100010011111011010001100001
01100011001111111101000100011110
00101100011011011011010101101001
10110011101011111111000100010111
01001100011011011111011001010001
00110000110111101001010011010101
11111101001000010110101110010100
00100100110111111101011010010101
01111100011000000100100011001011
10101000000101010011111010101000
11011111011000100110111111010001
00100011000001111101010011010110
00101100011111000101010001000110
00100111100111111101010110010001
01011101111011010000110001000011
10101000000001110010110010110000
01011100011011101110011111000001
00110111001010101011010000111110
00010100111000001010011000110001
01100110000011111100010100010110
01110100111010110101010100100001
10101100000000010010111000101010
01110110111010101001011111000001
00011110001000000000101000111000
11110001011000110100001100010001
01010011101000101000001100011001
11111011001100110010000000000100
01011110110101100001001110101101
01010111111000101011001000000110
10011000111001001010101011111000
11111011111100100010101100010100
11010101011011100001001110011101
11111011001100100010101000000100
00010000010111100010001110111101
11111001101001101010111100010111
10011100011001001001001011001011
11111001101000100100101000010000
00010101011111101001001000010101
11111000101000110110101000000110
00000111011111101010011100010100
01111000101100110110101000000100
11111000101110110001011011100111
01001111011000101010011010011111
11110000111111100001001011110110
01001100011011101010011110001111
11100000111101101001101011010100
01001100010011011110000000101110
10100000010111100001010001100111
01001100011011111011010010101001
01110010010111100101011000110010
01001100011011101011011010100011
01110001011001100001001111100010
01001101010011011110010010000000
01111001101111101001000001001111
01101101111010111011111100001011
00110011010011101101001001001010
00001101011011011010111010000011
11101000001011001000100001100011
01001111111011011000011110000001
01011101111010000110010001001010
10100100110100000001010000100000
11011100011010001000001011100110
00110110110010011001011000011000
11010100010110001000000011000111
10110110110000100001010110010000
11011100011110001011001001101111
00100100010110010001011010111010
11011100101010001000001001101110
00110101010100001001011000011011
11011100001110001010111001111111
00110101110110101010011010010110
11010110001110001011101011111110
00100111010110100000011000101111
11011100101000001010111001110100
00110101010110011001011100011110
10010100111110000010011011110110
00110101010010111011010000010101
00110000100000110101101011100000
00000111111100010000011101110010
00111000000000110110110001100011
10010111110100110100010110010001
00100000100101110100110111001100
00011111110000100011011111100111
10111000000100111110111011100110
10111110110000011100101011010000
11111000001010100000100001011110
10010111110100001110101111110101
10111100001010100100000010011100
10010110110100011100101011110110
11110100111111111010010001010100
00111110100111110011001001110110
10111100010111111000010010000111
00111100000000110010101001010101
10111100011111110010010000010111
00111100010000101010101001010111
01100111110101111100010100001011
00001100111011101111100101001000
01000111110110010000011100010001
00001100001001101010110111011001
01100100110101011010100000101001
00101000100001100110110001001000
01000111111100111000010110000010
01010110100111111101100111011001
11000100110110111000010010010001
01010110100011111101100011011001
10001110100010011000010000000011
01010100100011101101101111010000
11000110101100011000001111100101
01010110110110111111000110011001
10001100111110010100011010100101
01110100000110101001001110011001
10001100101110010000011011000101
01111110010100111100101101010010
11111110001010001100100001010011
10100000010001000101100000100100
00110110011000101111100100000110
10100000011111000111010000100110
10100000010000101101000000100100
10100000100011010111011000011111
01110010001010000101100100011101
10001000011001000111000000100110
01100011011011101111101100111010
10101000011101000111010100101110
01100011111000101111100100000100
10100100101010000111010001111111
11011001010110011110110001101001
11001100000011000111010001101111
01101011011010100111100100101001
10001000101011000111010000101110
01100011111000100111100100101000
10100010111010000101011000011110
10100101010110110000100110000010
01010110010000100101101111010010
10111010011010101000100000001011
00100101000100100100001100110110
00110001011110101000010110110101
01110111100101100000001100000000
10111000001100101000101010110001
11110111010100000100001110010110
00111010011010100000101010001110
11111000010100000110001011110100
11111100001010101000010110011110
11010000010000100110101000110110
01110110011011101001111100010110
01110110010010100110000000110100
10110101010111111000000110010100
11010100000001110111101001011111
10101101010110111010000000110101
11111100000000100011101100000111
00111100001001010111111010010001
01101001010111010100101101100010
00000011001011110111101010011001
00111001011000000110111001100110
10100010001001011011101110011110
00111011011000100010011001000100
00000010000011010111100010010001
11111001011001000110110011100010
00100011000001011101100100011010
00111001011001000100100001100110
00100010000011011101101100011010
00001001011001000100010001000110
00111000000001010011100111001001
01001001011011000101101101100000
00111011000011011101100100001010
11001000011011000110100101100000
00110010000011011101100100001010
01001010111011000101011101101000
11001010000011011010011000110111
01111100011010101010101001000111
11001011000011010010111100110110
01111100011011101010111101100111
11001011000011010010101110110100
00111011010011101100101111111111
00001111000001011110111100110110
01110101011011101001010101101000
00001011000011011010111100111110
01110110011011101000011101101011
00001011000011010010111100110111
01011100011111101100111101100011
01001111100001011010111000011010
01110111011011101000000111101101
00001111100001010010111110100110
01110111011011101001111111101000
00011111100001011011101101101111
01010100010011101001101111111001
00000110101000011101011011001010
01110010100110001000100111001101
00001010100100011101101011010010
00101001101100000010110011001110
01000010101110010111101110011010
10111001001100000010110101001110
01001110101000010100011011000001
00100010101100010000110111001100
00000111110101011111001011010001
10101011001100010010110101001110
01100010111111011101001110000011
10101000101100000010100101001110
00001110000000010110111011101000
10110000110100110000100111100100
00000110010101010101011011011001
10101000101100000010101101101100
00100011010111010111111110010000
00101000001110010010100001001110
11100100111110110101111010110101
00100110000111011011011011001111
10100000100110110111011000111101
11101100110000101111001011011011
10100000100010110110101000001100
10100101100000001100101110010100
11100110110111111101011010110101
10101100000010010011101001001111
10100110110111111101011000011111
01101110011000101110101011011010
01100000100111111111011000011110
01101101100000101110000011101101
10100110110110111101011010011000
01001100010111101111010011000100
00100110110111111110010010000000
11001100011011101011110011011000
00100111110111111110011101011000
01001101111011101100110101001000
00101011110001110111100110101011
10000011101001110001000001001110
10100011110010110101101110100011
10001011101001010000001001001100
10101011110010010101101010110010
11001011100100000100001011101000
10101011110011011101000110001011
10001011001000011010001011101100
00101011110011111101000110010010
10001011100001000010000011101100
10101010011011110101100000000010
11011010100100000010001011100100
10101011110101011101000110001111
10011001100000011011110111110110
00100011110111011101000110010010
11001000000000011110110011101100
11111011010011011101101110010000
11010010100000101110001101100100
01000111111010111011000110000010
10111100000011100111000001010010
11000111111010111010010100011100
10011000000111110011101001011111
11110110111010111000110000010000
11000100100011110111001111110001
11000111011000111010101100000000
10001000000111000111001001011011
10000111111010111010110010110000
10100000000101110111101001111011
10110110111110110000110110010100
11000010000000110011000011011011
01001101011111101011110100101001
10011000100000100110011000111110
10000111111010111010110000101000
11101000000100101110111001011110
10010110111110000010111010010101
10001000000010111111011011110010
10011100101110000000100001001110
00110111010111111001000110110010
10110101101110101101100111000101
10100111110110010111100100100000
10100001111100100101100110010100
00100100111111010111100000000001
00110000100110101101000110100101
10010101110000001111100010100010
01110000111110101111101100100111
10000110110000000111100100100110
00110001111110100101101111100110
10100110101101010111010000001110
00110001010100100111000100100101
11001100100010100111100100000010
00110001110111101101000100100010
10001100101001001111100010001000
01100001011110101100101110100010
10000100101000000111100010100000
01110011010010111111001001011111
10001110110000001000001001101110
00010000010000101011000000110010
11010111001100001101001100110100
10010100010000110000100001100011
11000111101100101001101000010001
01110011010010100111101110111011
11001010101000000110000101101110
11110011111010100111100110100010
11000011101100000111001001011100
10011001110000100000101010100010
01010011100100001101001110010100
01110001110010010111001101010110
11101100101000000010010101001110
11001011111010000000101111110111
11100011101100000000011111011100
10111001010000000000101011101001
11110010000100000001001011010100
11100100011111111111011011110110
11001110100000111110101001111101
00000001111011101001011000111001
11001100110100111110000010000101
00001011001000110010100100101010
10110001111000001110110111010101
01000011011100101100010111000101
00101110110011100100100010001001
00001001011101111000010100001001
01101100011000101111100001000010
11001011001001010010100100001011
10110001111000101110100001000001
01000111111100011110010101010000
00110110111111101100101110000000
01001111000000111100110100000011
00011101011010111110110011000011
11001111000010011000110100101011
01010001011000101110100111000010
01000010001011010101100100001001
10010011011100001100010011100100
01001010001001010101100011000010
10010010111001001110010111100100
01000110001001001111100011101011
11010010111111001101100111100010
01000010000111011101001111110010
01111111011011010010100001101110
01000010001111010111001101010010
01011101111111001010110101100101
01000011001011011101001011010000
01001000111111001100110101101111
01000011000111010111101010111101
11011000001011011010010101000101
01000000000111010111111011100011
01001010111111001010011100100001
01001011001001000001100011101001
00001010011111000100110110000001
00001111101110011110111100100110
01100001100010000001010111011001
01001111100100010100011110100111
01110001101010010000110111010001
10001111000100010100001000101111
10110000101111110101110101010111
01000110100110011100011100100110
00110001101111011001110101011101
01001111000100011110011000100110
00110001100011111000110101011101
11001111000110011100001001100101
01100001101111111110110111111001
10000111010110011110111100110110
10110001111011001011110101010100
00001111010100011110011111110100
11110101101111111000101101011111
10000110000001011100001011100100
10101101101011110011101101011110
00000111101000010000100100010011
10101011101111011101010001101001
10000101111000010010111111010000
00110011100100011001110001110001
11001100101110010010110101001000
10010111000010111101011011111001
01001111111000011000101110001000
10010010100000000111000001101101
11000101011000011010101110010100
10110010100101011111001001110101
11001101111100011010111001111100
10010011001110111001101011111001
00000111010010011000100110011100
10000000001100010111000001100111
11010101111100001010101110110100
11110010100101100011001110111001
11001100101000000010111000111100
01110111000010100001001110111011
00110010110001111011111001011011
10101000001101010010101001001100
01010110111101100001111000010010
01100110001101010000011001111101
10000100101100111010110111010001
01000110001111111000010010111001
01110010100001010111100011111010
00101000001101000100011101001001
10000010000001010011110010100010
01001000111011010101011101111001
11001110000110010001110011110000
01001111010011111101011111111000
01110010101011011001101000011001
00101010111000001100010101111101
01010010001001010011000001011011
01110011111111001100010111111001
11010110001000010011001001011101
01011010111111011100011111110001
00110100000111111101000001000110
01001001100011000111100101000101
01110100001101101111000001000010
01000001111011000111010100010111
01110111010011101101000011100010
10101011100011010111110000101100
11110100001011000101000011101000
11001101110111001111011100110001
11110100001101001111000011101010
10000000110011001111011110110001
11110100011101101101000011001010
10001100110011010111010000100111
11010100101011001001101001110110
10101010100110001100011110110111
11110100101111001011001001101100
11001000110100001110011110110001
11010100111111001101001001000100
10001000110011010110101010111011
10011110111100010000111011100000
10100010100101010110110011011010
10001110111100010000011011100000
10101000100001010000111111111010
10001111111101011101101011000111
10101000000101010011110011110111
11001100111101011000010001101001
10000000100000001110101001011011
10001100111101010000011001101101
10101000100100011100111110111000
11000110111111001001011011010101
10101000100101010110110001111110
11000100001111011001010001101111
10011010100111111110110001100011
11001110011111011000010001101001
10101000100001011110101011110011
00000110011111011101010010010011
11001000000011011110100011101010
10011001001001100010100010001000
00110011110100100010001110010000
10111001011001000010101010011100
10111000110101010110101000100100
00010101010011111011001110011100
10111001000001011110100001000111
10010101010001000010101110011100
10110000000101011110101000100110
10010101011001101000101010010100
11110000000101110110101000100011
10011101010011101010001100111001
00111100000100111011101100000011
10110011010111101000101000110100
00010101000111011111101100100110
11011101111010100010101100110101
00110011000011101010001000000011
00011001101011000010110100111011
01110011010100101010111100000001
01100110000111011111100001001101
11000011101010011100000101000110
01100010000111011111111001011110
11010001111011001100110110010101
01110110000111001111010011011010
11000111111011001000110100101100
11111100100101000111111011100110
10100011100011010000000100000111
11011100100111000111010011110001
11100001100111000000111100010100
01011100000111000111110001111000
11100000101111001000110110011111
10001100100100000011111011110100
10110001100101010100001000010101
10011100100011000011111011110100
10100000100110010000101110110111
10011000100001000011110001100000
10100011101111010000111110011111
01100000011111011111010011011010
01100010100100001110110001011100
01000110001100010111110001001010
00100010101110000100111111111000
01100110001000011111110001001110
01100000111110011110110010101100
01001100101111010101110001001010
11001011111110011100111110111000
01100100001110011101010001011010
00000010111010011100100111111100
01100110001110011101010001011010
01000000011010001100110101101110
11010110001101010101110011011000
11000011010111011110100010011001
01000100101110010111010011110000
01000111111010000000110111111000
01011110101100010111010011000001
01001110001010000000010100011010
11000111111001111010100010010100
11100001000001010110010001110110
11110111111011001101010110011101
11001000000011010111010001101111
11001011111110010100110010110110
11001000000011111011011110111011
01000111011001010111111100111010
11001001001101010110110101110100
00000011111011111110111111011010
11001010000011110100110001001111
10001011110110011110010110001011
11001010001011100001011011101011
11001010001011011110101000101000
01011011100000111110101111110110
11001110101000010110111001101011
11000011110010000101011111111110
10001011111010011010100000101010
10110011111010000001011011111110
10101000100000111101011100001010
11001011100111101001010011011111
10101011110011111101111110000011
11001011100100100000111011001000
10100011110011111000111110011011
11001000100111100100101111011011
00101011010101111101011110111010
01001001101001110000001011011111
00100011110111111101010100011001
11001011101001100010001111101110
00100011110101111101011100011000
11101011101000100110101011001100
00101111010101111100010110001010
01011111101011101000111111001110
00101111110111111101010110001000
11001111001101100000000011001111
00100011110111111100000110011001
11001011101101100000100011011110
10100100010011111101111010011100
10010101000001011010110001101111
10110000110001101101010001110000
10001101101011000011111111011010
00111000100101100111101001110000
10101011110000000011010110000100
00110000110100101111000001110001
10101100000110000001111110010000
10111000001010100111100001111010
10101111110100001100010010110000
01110000011011111101101001000110
10011101010001010100100000100100
10110000000011111101111001001000
10001110110100011101001010110100
01110000011011011101110011001110
10011101010001111110100001111011
10100000010111111110010010110011
01000110000111000011010101001011
00000011000100001101101101010100
10000011100111010000001010001111
10011011111110011011100001110100
11000011001110011000101011001110
11011000011100000110101001100000
10110011000110011000011100110100
00100011111001011101101111010010
10110011100001010000101111101100
10111011111001011111100010100000
10100001001000010000111101001100
10001011111001010111101000110100
10110011000100010000011001101100
00100011000001011101000011010010
11011011001101010010110111001101
10101011010011011111100101001011
10101001101000010110101101001100
00100011011001110101100111010100
10100011001000010000100100101100
01101010101011101101000001010101
10011100110010001011100110000010
01101000001011000101100001011110
01000100110010001000100110000111
01111010001011110101010001001111
00110101011010001000101111010111
10100000100101110100011011010010
00101111000111100001011000001010
00110100100101110111101011110101
00101101000111110001010101001110
01100000100111010111011011000011
00101101001111011000110010001010
11001010100000000100100011101011
10100111011100100100001010110100
01110010101001100111101011101010
00100111111110000001010010011110
00100010100001100111110111000011
00100110011111000001010100000100
00110100000101001101110011001101
00100111101101010101101010101010
00111000001001001111110011011000
11000111101000000100101110110010
01100100001111010101111011110110
10010111011000011100101110100111
00111100001000100101110011100011
10000111110101000101101110010000
00111100001001000101010011110011
10000111111100000100010110111010
11101100001001010111111001100011
10100110111000000100011100100110
01100000101101001100011011101011
11010110110101010111101110110000
01110000001111001101101011011011
10001011110100000100101110110110
11101100001001000001111001111101
11001110110100000100111100010100
10100111001000111101000110011110
01010110101000111010101011100101
00101011000110111100110110110100
01010111011010111001111111010001
00101111000000111101010110011110
01010111110010101001101011111000
10100011001010111101010110010111
01011110011010111011011011111100
00100011101110111100100110110110
01110111111010111000011011110100
00110011001000110100100100110100
01010111110100101001011111110100
01100011101110111100000110010100
10111100010000111011011011011101
00100011001100111101100110010100
01110100011100010010010011110111
00110011001010111101001110010100
00011100010000111010100101000111
11010101101011001011111110101010
01111101010101101110000010101101
01110001110001100101001110100011
11111101011100100011110000001111
00110011110001100001101101100011
10100111101101000011010100001100
00110001010011101101010110000011
11111101011001111011100100101111
00110011110001100001010100101010
01110101011001100111010100001110
01110001010001100111111100101100
00111101111001111110010000001101
00010001010001100011010100101101
01110100111010000011010110001010
00110011000001100111010110001111
01011111111001101111110000101100
01110001010011101101110110001010
01010101101001011111100000100101
10101010000010011110010100101010
10010001110010100101101111010001
10101010100111011111011100111011
10101010100011001110101001011111
00100010110110110101011000100010
10000000100111011110111001011000
10101110100100010100010100001101
11100101100010100011111101011101
10101110110110111111010000111100
11101100100011110011101101011111
10101110110110111111010100100101
01000111100011101011101111111111
00101110100100010110100000001010
10110010100110100101001101011001
10100110110110110101110110010001
10100011100011110001010111011100
10101010110100110111101100110010
00101000000110000001011101111011
10100110110001110100010001101000
01111111000110100010011101111101
10101100100101110110111000111101
01011111110111110010111111011111
10100100110101010110010001101110
01111111011111110010100110011010
10100100110100110110111011011000
00111111000101110010011111111000
10100100110101110100110011011010
00001111000101110010111111011010
10100100100101110100011011011011
00101111000111110000111111011000
10100000111100111101000011010000
10101111001100100000001010011110
10100010110100111100100001010000
10101111010101010000101010011100
10100010110111110101011001010011
11111111010101010010101010011110
01011001111011001001001001110111
10101000001100011000011010101101
11011001101011000000011111111111
00100110011110001010010000101101
01010001001011000011011001001111
00110101111011001000010100101101
11011001011001000011010101011000
10111111111101010010011000001101
01011001111111000011011111111011
00110101010111011000010010101101
11010001101111000011011111111000
00100101111111101000010100001101
11011000111001001011110011011001
10111000010100011010011000001001
01010001111001000011011011011001
00110100110111011010010010101101
01010000101101000011011101010110
10100100111111101010010110100101
01011110001101000010110001100001
01110111110111111000101111100000
01001010001001010101110001000000
00110111011111111000100111100000
01000110101101010110011011100001
00111111011111111100110111100000
00010110101000010111100011000100
00110111010111110001010010100000
00000110000000010111000000100001
00100111011010010001100011111000
00100110001101110111000100101111
00101111111111010001110001100010
00000111001111110101100010010000
10100110111101010100010001100110
00000010001101010111101000001100
00110111111111010110110001101110
01100010111111111111100000000100
10101100111110010100110001101110
01000111000100010100000111011101
00110001001110011101000001000001
01001011101101010101000110110101
01100000101110000001110101000001
01001111101010010101100111110101
01000010111111000101000110000011
01001111000000010101001110110101
10110000111111001101010101000011
01000111001011010111100110110111
00000000111011001101010101000001
01001011000011010111100110100111
01000000111111001101010101010001
00000110110110111110001100001101
10100000101111000011010101000111
01001110100100010111000000001111
00100000001011010001111101001111
00000111000110011100001101101110
01100010101110001011111101000111
10001010000011011011110000010111
11101001101000000010111001011101
01101110000111110101011100010101
11011001101011000010010111001111
01011101100110010111011001100101
11000000100010100001001111010111
10100111010111111111010000011100
10001000001010000010111001001101
01001111010111011111010110010110
01011000001011010010111001000111
01001011110111010111100110110100
01001000100011101011011011011001
01001110001011110111011000111101
10001001011010100110011101001001
00100111000111110111010100000100
00001000011011010011110101001111
00001111011101100110010111100000
11000000101110001001011110010011
01000110010110010101000000011111
10101000000111011100110001011111
01100111110110011111011100011111
10101000011111010001110001001111
01100111100110010101001100101010
10001000111111011111010111001001
01110111101110010101001110110110
10101010000100010110110101101111
01100011111110011101001110001011
10101000001110010111110101001100
01100111110110111111001110100100
10100000001111011111010101001101
01100111011110010111001100101101
10111000000111011110110101001111
01100111110111111111011100111101
10101000001111010010010101001111
01100011111110101111001100110110
00101000101110011011010101011100
01001111011010011010111100111100
01010011101000100101000111100110
00000111100000011010010100001110
11100011001111110101100111001110
00000111111100001111010100000100
00100001001111000111010111101010
11001111010110010000100100111100
01010001001000101000101011011100
00001111110010010100001110011111
11000001001000100000100011011100
01100111110110011101001110000100
10100000001100000011100011111111
10001111011100010000010110111101
11000010001011111011001011011010
00001111000010010000000100101101
11000011001000100101111111011000
10000111111000100111000110000100
10100000001101100111010001111100
11110100011010111101001000010011
11010011010100010110101011110110
11110000011001111111111000011100
11111011111100100110101111110000
10110100101100100010001011011110
11110101000100110100001100011000
11100100111111111101011011010111
11011110001000100110101001011110
10110000010101111101010000000000
11011110111000100110101011010000
11110000001001101011101000000100
11011000111000101110101010010100
10110110010111110101010010010010
10001110011110110010111011110000
10110010010111111101010010010000
00001100001001110110101001000010
00110000111101111010010010001000
01001110001110111110101011000001
11001010011110111001110000001100
11001000101010111010101011101111
10011100000011010010100001111010
11010001101001100110001001110001
10010110000000001100101101000000
11010001000111000001111100111110
10011000100111001000001001010001
11001010100011011010111110010101
10011100010000010010100000101110
11011001000000101000001001010001
11011000000000000010100001101011
10110001100100010100011110110001
10011000111110000000101001010100
11001010100010010000011010111111
10011000101010000000100001101110
11010001000010111000011010010001
10011100001000000010110001101010
11000011100100010100011100110000
01001111101001010000110111010110
00000111001111000001011000100000
00001110100000010101110110111000
01001111111011111001010101000000
00001110100100010011010001100001
00001111111011101001111101011000
01001011101011010001100110001111
00101000011110001101010001100011
01001011101010010101100110010011
00001011111110001101010001100000
01000111001000010001100101111001
00011011011110001101010101100100
01000011110011010101001110010001
00101000001110010011010001101111
01000010001011010001001110011111
01011011011000000011000001001110
01100011001011010101101100110101
00011011011000000111010101000110
10110100000001110010111001111010
01010111110110001111011101110010
11110000000111100100111011011010
10001110000101000010100100110000
00110000110111000001011010010001
10001110010011001011010101101101
10011100100001000010101001101000
10111000100101000111011100010110
10011100100101001010100001010111
10001110100111010011001000010111
10110000010111000000000001110001
10001100000101011011111000000011
10110000100011000011101001110010
10101000100101000101001100010100
11010000110011101000101011110100
10101000100111000001001100010101
11010000110111001001110011000101
10001000000111111111101000000011
01000101001101000100010101110010
01100111011000000100110000110011
01010111101001101011011100000001
00100110001111010001110110001100
01000101100101101101001100001101
11001000000001111010100011001001
00001111000000011101010100101000
01110001111010111100110111101000
01100011101001100111011110100010
00100011111101110111110100101110
00100111110100111101011110010100
00101100001111011011100011101111
10001111000000100110010101101001
01100011101000101001110110000010
01101111000100100101001100000101
00100011111101010111100010101100
00100011011110111001101110010101
00010000001110110011110010001101
01000000010001111000101010010101
00011110001011110110000001000110
01000010001001110001101011011110
01100011011110010110011000100110
00100010001101111101000011111001
00101011011110000101011000100010
01001000001001011001100111111111
01110011111010001100011111100100
01001010001011000101101000111111
00011011111010001100011111100100
01001110001011010111101010011110
11111010111010001100011011100100
01011011001001011100101101011011
00111101011110011000010101100110
01000010001011011101011011010100
01111111011011011010100001100111
01001010001011011111001000011110
00111111011010110110101101100110
00100011100111001101000110001011
00001001111101001011110001001111
01011010001010001001101001101000
11101011111101000101011100000000
01110100001110011111101001111110
11010010110101000101001100000001
01010011001010001001100110001011
10111010011010001010010010001110
11011000001010000010101001111110
11010011110100001010000100110100
11011100001010000011111001111110
11010001110000000100001110111101
00011011110001001001101111000011
10101011000101000001010001001111
01011000111111001010101111110101
11100001000101000010001100000111
11011000111100000010111011110010
11100111000100100000001110010001
00100001011011110010000100111100
00011100011000100010010001001111
10111001010001100010011100101000
00010101011001101110000101010010
01110101000101100000011100111101
00011101010101101010100000000010
00110011110111111000010100110101
01011100010011101010110001001011
10011001111000100010111110100101
00010101110100101010010110110000
00110001110100100000111110001000
00011101110101111011001110000000
10110011110011100010100100111011
01111101010000100010111101000001
10011001111000100010101110001010
00110111110101101110001011000000
00110001100010101000111010010111
01011111110101111111100010100001
10101000001000001000001101001010
10110111000100000001111110011100
01100100000010011101101011010010
10110010100000000000000010110100
01011100010110011101111011110100
10000100000001001000100010010110
11111010101110000101101011001110
10100011101100000001101000111100
01101100110110010101111011010100
10000100100000000010010011111100
11101100010110010001010011110100
10000100100010101001011111011011
00101110110101010101010010010110
10101100001010011001000001100001
11100000110111010101110011110011
00001100000010110011011001011100
10101010100010010111100011111011
11001010001010100001011010010010
10110101000101101010001110010011
00101011110111000110100101001100
00110101110101101101100110010110
10101000110001100111000000101001
00010101010101101011111110010001
10110000110101110100000110100101
00110101010001101010100100001000
10000010110101000101000100100101
00110111010000101011110110000010
00010110111001000111100101101001
00000101010000101010110110011000
00010110100101111101000110110001
00010111100000001000100101001000
10010010110101001101000100100011
00010101010000101000100110000110
10010110100011001101000100101001
10011100100000011110110010110010
01010111000111111001001110110001
01100100110111010001110011010001
00001011001010010111010001001110
01010100001101000011110011010001
01000101011111011111000000000010
11001000001111010001100001110000
01101111010011000100010100111100
01000100101000000011100011011011
00001011111111000001010000001000
01010000001001000011100001110010
00000011111111001001010100000000
01011000001100000011100001111011
00010011111011001101010110110000
01000100101011000101111011010110
10110000110111010110110100001110
01010000101001000011101011011110
00100111111110001110000000000011
11011100001111000001111001110001
01010111110000110000110100000111
00111001000110001100010100011011
01011100011000001110100010100110
01010101001110000000100100001000
01010110011001111100100010100110
00000110011100100010001101111011
00110011011001110110110111000100
00010001110110100000110110100001
01010111010111111011110010001010
00011001011000100000100110000101
00110111010101100011000110100010
10011101011110101010100110000011
00110101010101100110100100100110
11010000101010100000101100100111
11110011010100011001010110101110
11011000001010000010101111111111
10110011010100100100000110100100
00010001101000000010101111101111
11110011010101110111010000100100
01100110000100010101011010101010
11000101110000011110100111010011
01000100101000001111111011101100
01110111111110010000110110000110
11000101111100111001011010010101
01110100110111111100110011100110
11000110100110110110011001100000
01100111111100001001110111011100
01100011001000000111011101011110
10101111111100000100110110100100
01100111000111111101010110000100
01101100011011010101100110101110
00101010101110010110110101101110
10100111111110000101110110110000
01100111000111010101111110011110
10011100111111010110100011101101
01100011101111110101010010110101
01001000001011111011100111001011
11000000011111011111010001111001
11100101101010010010110101011011
11101110001110000111101011011101
10101011111010000100110110110100
01101100001110011101111001011110
10101000111010011110111000111110
11101010001000011110111001001110
10100001111100001100010111010000
01100110011010011101111001000110
10001010111101010110100001110110
01100110010111111101010011101010
11000100001011011011101011011111
01110111001110011101011101001110
11011011000101011000100010110010
01100100000110111101010011110101
11001100000011010010110111101110
10101010101011110111010001100011
11100100101110001001011111111001
11001011000001011110111101110011
00010001101011001010111101100000
11001011000011010000101110111010
11010001100101001100001101110100
00000101010101011100110111010101
10101000000011010011111001001111
10001111010000010010101111101101
00111000000111110000011101001011
11001110000010010000101000100000
01010001000011001000101101110011
10011011101000010010100011000001
10000001000011010000011100010110
10001111100010010000001111000101
00101010000011010001011001011111
10001100110100010000011011000001
00100010000111100001001101010011
11011110000010010010100001100011
10100000100001000100011000110110
11100001111110101010011101110100
01010111011100111110001110000010
00110001001100100000010100001101
01111111011000111101000010100010
01110001001100100101011110101110
00110111011101110011010110101010
00100000001100100000010110001100
01011111011000111111100010000010
01110001001000101101011100011101
01011111011100111111100110100010
01110001001000100101101100110101
00010111011101111110010110100110
00100001101100100000010110101000
01000111011000101101010110000010
01110001101000101101100110001010
00011111011000111111000000100010
01110001001100100101100110011101
00000100011001010111000000101110
00100110001111111110010101000100
00010111110011111100110111010010
11100110000101110111110011110100
00010111110011111010110101110010
00100110000011110111010001100100
00100101110011110010110101010011
00100110000101110110110001110100
00010101110011110010011101110001
00100100100111110110110001111100
00110100110011111010101101111011
10111100100111110110000001110100
00100110110111111001111111010011
10101010100001100110111011110101
10110110110100110110101100010010
10110100100101110111100011110100
00100110110111110001101100111000
00111100100111110110100001100000
00101101100000010010101011011010
01010001101010000110001110110010
00110011000000000011110100001110
01011011011011000011001101110110
00101000001010000010010100001110
01011010101111000011001001111110
11001010001100000010010110001100
11010111110011001011000101000101
10101000000011010010110100001100
11010100111111000001011011110000
11101000000010000010010100001101
11011010111111000001101000110000
11001000100110000110111100100101
00011101111111001011011001010101
11100000100100010010111000001111
11011101110111000001011011010101
11001000001010111010111000001111
11011010110111000001111011110001
01001000000110011010101000000111
11011111001000011010111100101010
01010011100111100100000101110100
10010111011000011010001011010100
00010010100011010000101101110101
10001111001111011100000000100101
11010000000000001010101001101001
11011100001001010010111001101010
01110001000100101110001011110000
10011110011000010010001111110110
10010010000111010000011011110100
10011101111111010010001011010101
10011000000101110010111001101011
10001000100000011010111011101111
01100010101100111101011101011001
10011110101000010000101011010110
10110011000110010000011111111000
00010101111101111000001111010101
10111000000111010100100001100111
10010011110101100000000111100001
00100111011010110001011101011000
01011011001001000010101100111001
00111011110110001100010100100100
01000101011011011000100000001010
00111001110101010110010001100100
11011011011011001000101100011010
00111010111110001100010010100100
01011111001011001100001110011110
10011000011001011110100000100110
01010101010011011010001110000011
01110100011011100010100001001110
01010011011111101101001010010010
00001100100011110010100000110101
01001101010101011010001110110001
01111100001011100011111101101111
10011001101101000010110001110001
01001111101110101001011110100000
00000011010000111000001000100001
10110000100101010111100000100111
10010100011000001000100011000001
10111000100100110001101010010011
10011101110000001000101011010001
10100000000100110111100010011010
11010101010100001010100100000000
10110000101100010001100010010010
11011100111000001000100001100001
10110000100100110100101010010011
10011100011100000000110011100001
11100000000101110000101010010010
11011111001110000010100101111001
11010001100100110000110110000010
11011100011000000010111001110100
11110011000100110000101110110011
11011100110010001000101011010001
11110011000100100100101010010001
00101111100111111111110111101001
01011101011011111000010011001010
00111001000111000101110011101100
01011101011011111000101110100011
10001000000001010010110011101001
01011111011010111100111010000011
00111110000111100111010001011100
11011111111010011000101110100001
01111100000111000011111011100110
01011111111110111001111110000011
10011000000001010000000001101001
01010111111000101101111010110001
01110000000110010101000011010101
01101101111010011011101010110011
10011000001010001000100011011100
01010111111010011000101010010011
10011000001011001010100101101000
10010011111000101000111010111011
01011100001100001000010011101111
01000101110010101101010010010001
11011100001100000010010001101000
01000000110111101001010110110001
01000110001110000101010001001011
01100000100111101010010100100100
11010100101100001001011011011110
01100100110110111001011010110001
11011100101100001000010001101101
01000100110110101001010110010011
01010100001110000011010001011101
01000001110111111101110110010101
11010100011100101001011011010100
01100101010110111010011110011111
11011100101100000010011011000101
01100101010111111001010010011011
01010100101100000000010011010101
01100111001111111011010010011011
10001110011001111100111000010101
11110001010010101010101101010001
00101110000001111100111010000000
11111001001100010100101001110011
00100110101001111110110010010111
11011011001000111000101111010011
00100111000001110101111010010101
10001011001001010111100001001110
00100011110001110101100110010000
10101011001101010111001001010000
00100110111000110101100110010001
10101010001001010111010001011001
00101010101011010101110000001011
00001011010101001111100011100000
00101011000011111100100000001010
10001010101001000110101101110000
00101110101011110100101000101111
10011010110100000111010001110000
00100110011001111111111011010110
10110011111001010111010101101010
00100100010101111111010001101100
00110111000001111010110011110011
10001111010001111010110101001001
10111111010001111101110111111011
01010110011000111110111111010100
00110111110110110100000101111001
10010100011101101010010001100110
01110100010010111001111110111011
10011100001000001010110001001001
01010111010110111000101110110010
01010100001000101110101111111110
10110110110101100100000110110100
11001100001100001010111011100110
01110111010101111101001110111001
10011100101100000010110001101101
00110111010110111000101110110011
01011101011111001010011010000001
10100100101000011111100100001011
00110101101001100011100100010000
10101001011101101111100000000010
00001101111001001011101100010010
10111011111000010111100100000010
01011001011010100010000110000001
10001000001101000111000100000011
00110001111010100000000111000000
10101011001000010101000000000000
10000101011001101011100110100000
10100001001100010111000000001011
01011011001010001010010100101101
10001000101010101111100100001011
01011011101110100001100100101011
10000011101000000111000000100010
01100111110100000011011100101001
10000000101101000111001000000101
01011011101010001000011100010000
01100011001000100000110010111111
01001011111010001000001100011001
00101011000000110000100001001100
11000011111110001000011100001011
01100010000100100001000011111100
01001111111000011000010100010000
00100000001110110000010001001101
01001111110100011000011110010100
00100001001100110000101001001010
11001011111100001000011110000101
11100000001000100010000011001111
01001111101100111010111110001000
00100011011110100100010101101000
00000111110100111000110110001000
00100000001111110001010001001001
10001111110100101000110110010101
00110000001110110001100001011000
10001001000101011100011110101110
10100011101110111001010011111010
10001111010000011000001110000011
10100001000101111000101011111010
10000001011000011100101111000001
10010000000001111011101011101110
00101011110000010101100110101000
11100111101100011100010011111010
10001011010000011100100110000010
11110011001100010100100111111010
11000101111000011110111111000011
10110011100100110001101010111110
01100111110010111101010110001111
01010111001010111111100101101010
11001011010000011000101110100110
11110011100001101110111111111000
11100011101000011100001100011110
11010010100101000110010111111100
01101100100101000111000001101001
11001101111100000010110110010100
01110011001001000111111111011110
01100111111101001101110110001100
00100101010110101101010110010000
01001110011111011001000010001011
00100101100001000111110101101010
00101111111101001100010110000000
01100111001011101101001110011110
01001101111100011111000000101100
00100011110110111101010110100001
01000110011011011011010011001011
01110111000101000101011111010010
00000111111101011000100010100101
00100111010111110101010110110101
10000100011010000101110101101100
00101011100010110111000101010101
00001110111100001001010110001100
00101100010001110111001000010110
11111000110000010110101101011111
11110000011001100101000001110110
11010111110100010110101100010111
10110000001100101101001011010110
11000110110000010000101110010111
10110000110101101111000011010101
10101100100001010010111000111111
10110000111111101111011011110000
10101100100001010010111010110111
10110000011111101101010001110100
11000100100000011010101100110001
10111110001101101111111011001110
10100000111101010110011100110001
10110100011111101111010001110100
10101000010101010110111000110011
10111000111101101010110001110000
01101000100110111000011100010001
10011101101001001001000110011001
01101110010111111101000010111101
11011001101100000000001110001010
00011111010110111001000010111100
10011101111011000000101001101001
01110110110111110001010010110100
10110101101101101001000010001011
00101111011101110111000010011111
11010101111100101001010110011111
00100111010100111001000010111001
11110100101011101000111000011100
00110111110100111110000010110111
00000011011101011001100110100011
00101111001100010101000000111100
01110111011100101001111111011100
10101100000111000111000000001100
01100101011110101001110110010101
01001100100011111111100000011111
01001111100000011111100110001000
01010011001111011001000101001110
10001111110100010010000110000000
00000011000111011001001011011000
10001100111100011100100011000000
00000010100011011001101010110000
00000111111110010001001110011001
10100000001110000001010101011100
11001111111000010000101110110100
10100001000110010001011011111000
11000110110100011100001111000000
10100010100110010001001011111011
01100111111110010101001110011101
10101000001101010111010001101110
11000111111100010001001100000101
10100000000100010011011101010100
10000110011100011110001010000100
10000000100111001001011011011000
10110111010011111011110100100101
11000000001001011110111000100101
00111011010001001111100100001111
10101000001001010110111100100011
10110011010011011001100100010100
10000000001001001110100001100101
10111101010001011011100001101110
11000000000111000100001100110001
10011110000001001010100001101011
10100001000101000101111100110011
11110101010011011001010011000110
10100000100101000111101100100101
10011000001000000000100001101101
11000011000110001100011110111011
10011110000000000010101011101001
10010011000100010101011100110001
10011100100111010001101011010101
11000000000011010011011100111101
00100100011101111111010111110101
11000100001011110000101001011110
10100110111100110111110011110001
01000111101010100001011111011001
00101111101100010101110011110101
11000011101010000001010111100010
10101000001000111100110001010001
11000001101000000101111111010001
00101010001000010101110011000111
10101111101100011100010010010000
01100010011010111101010111001110
10100001011001010101110011110011
10101010111010010110110011101100
10110000111100111000101010110010
00100100010000011101010011000100
10000110001000011101100111111100
00100110010010111101011110110110
10100101001000010011100101101100
00000111010101011111111100111101
01010101100110100100100111000110
00000111010001111100110110000011
01111001001101100110100011000110
00000011010101111101000100000111
10101101001000110010100001001110
00011011000000010110100110101001
01110011100100101100100110100100
00001111010100111100101100001001
10010001001101000100100111001110
00100111010001111111100110001011
10111001001100000100101101001100
10011001000000000010110100111100
11010011100100000000100110110010
10001111000000011110100110001101
10010001100101000100100111101100
00100111010001011111000100011100
10101001101100011010100011101110
01111000101110111101010000100011
00100010001011101001101101111001
10100000101000110110110001101011
10000001100100001101011111110011
10111110110010010101010010010011
10001001000100000111001001110010
10101000110110111000010011110011
11000110000010101001001101011011
11111000011000010101110011101011
10001011000100010001001111110010
10111100010010110101111011001111
11001011000000000110101011011111
11100000111010111111010001100110
01100110001110101001011101011001
11100010011100111101010010000111
10001011000101010101101111110010
00101100010110111101011011110101
10001100000000100110010001010100
10101100010011011000000000100101
01011000001011101010011001011011
10011010011001001010100001101110
11110011100110100011001100110100
10010111010001001000101111011111
10010000100100000110101110100100
10001000110010010010010001101101
11110000010000111010111001010001
10011000001000000010101011101110
11110011100100101100011100110001
10010100010001101000111111010100
10010000000101010000101000110111
10011000101101010010111001101110
00010111110010101001011000010011
10011100000001000000101001101110
11110001110101101100001010110001
10010100100001111010001011110011
10111110100111010001111101110000
01001111110001000010110100111010
00101111001011100001010000001010
11011111110011000010111111010010
00001001000011111000010000101111
01011101111011000010110101010001
01011111000011101000011100001011
00011111100100000010000100001010
10101001000111000000010000001001
11001111111000001010111101011100
10100001001110110001010100101001
11011101100110010010111111111101
11100010000111100001000011111010
00000111110000000001001100001011
11101000000001010100100000001100
11001111010000001010101111110010
11010011000100100001001000111111
11011101111000001000011111110101
01100011000110100000101100011110
10010000000001001011000011000011
10101111011100010011111100001010
10110001110001101010100111110110
10101111000100010010110100001110
10110000110101100010101111010000
10101111100101010000101000011101
10110001110001100011110111000010
11101101001101010111100000000011
10110001110001101000100110000010
10111101100101110111100000111000
10110001110001101000110111100010
10101011100101110011011000100001
10110001010011100001110010000101
11000100100001011111100000100011
10110001010001101000100110100000
10010110100001010111001000101011
10111001110101101000110011100011
11010010100001101011001110011001
10001111111000110000000110000000
01111100000011111001001001010001
01001111101100110000000110010101
00111011011011111001010001101001
01001011111110110000011110100011
00011100011011111011000101101011
10001011111110000000000110001001
00011111011111111011000001100010
01001111001010110000001110001101
00111101011011111111010001101110
01000011011110110010010110000011
00011100011011101011010001101101
11001011101011001110001100011011
00110110010110111100010001101101
11001111101110110100001100111001
00011110011011111011011001101111
11000011101010110100000100111111
00010110111010101011011111111111
00110111111011101111111111110001
11001001000011110010101100011111
10110101110100101010011111100001
11100100000111110011100000011111
10111001110111101100010000000100
10001100000011111010011100001011
10011001110010101000100010110001
10101001100001110011011010011000
10110001110110100010101000100000
10100010000101100111010010011001
10100101110110100010110100000000
10101001100001111001011010011001
11111001111000101010111000001010
10011011100000101101001010110000
11111101111100101110101100101010
10000011100001101011000010110001
10100101101010111000111100111010
10010011010101110101000010111000
00100000010001111100000111001010
10011111110101010101000001100010
00100010010001111100100110000000
10111101100100110111100001110010
10100000010000111100100110100100
10111111111101010111011001110010
00101010000001110101101000100011
00011111111001101111000101100000
00100011000010111100100100000011
10011101111000001111000001110110
00100011000000111101101110001110
10110101011000000111001001111100
00101011000000110100100110000010
00001100010001101101001011111000
00100011000000111100100000001011
01011100011001000111100001100010
00101011010100110110100100001110
00010110011101001111001101110000
10111110110101000110010010110101
11101100101110000011001100010111
10111000100101000001110011111101
10101000101110011011001100010111
00011000101101000100000011000001
11001111100110011001001110010101
10111000110001110111000011100100
10101000101101010001001001010111
10111000110001100000000011100000
10101000100111011001011000010011
00011000110011100000001001010001
10101000100100010101001000010011
00100000010011110011001001111110
10101000101101001010100011010111
10100000010011110001001001100110
10101000100100011110001000010011
10100100011011100000000001010110
10001000000011011010001000010011
10101010000111100101001000011010
11011100110001001110100111110111
01110000001011100111101001100011
00010101111110001100010110110100
00100011100000100010101011001011
00010000111110010101010000010000
11101000110101001001010001010100
01011101010011011000100010001011
01110000000111101101011001001110
01011100010001011010101010100111
11011000001010001010001001011111
01110100111000011110101010110110
10110000100000100101101111100010
00100111011111100001011010011100
10110000110100100011101011010000
00100111011111111001010100001100
10110000110101100000111011000100
00101100001111110101010000001011
