00011111010100101110011110101010
10111101011010011010011011010011
00110011000101011000111001101000
11101011111001010011000000001110
01100010100101010001101001101000
11001010001001000011101000001111
00010111110100111110011000001100
10110100100111010011011011010010
00000011100101110100111001101110
11100110110111010011101000011111
00000011100001110110101001110010
01001000001001100001111001100010
00000110010000001010011110000000
10110110100111011011011010010011
00010110000001111110111111100000
11100110000111000011101001111010
00010011010001111110101001111011
01001100001101000110100000111010
10100001000111011011001001111001
01000011001010100111111101101111
01000000010111100111000101111001
00010010000010001100011101101101
01110000100110101111010111100001
00110110100110011100110100111100
11100001000011111111010101100001
01100000001010100111111110111101
11000001010011001111100101110011
00000010001010000111011101101101
11001000010011001111000100101001
00010110000110000110010101101101
11010001010011001111010101111001
01001100011110000110100100111100
11110000000010001111000101110011
01001010111000100101000110111001
11001001001011101011010101110111
00000010110110101111001111101100
11001111110000000110001100001100
11111100111110101000101001001100
00001111010010000010101100000110
10111110111010110010110001001100
01111111110010101100101100100100
10111100111010011010011111100100
01011111101111000100011110101100
10111110010110001100111011001100
00011110111110000100011100001100
10111111111101101110100010001000
11011111101011001001011101000100
10111101111111101010100010001101
00010101010111001001111111001101
10101111111110001100010011101101
00010001101111110101011110101101
11101011110110000000100010101001
00010010101011011111011101101101
01101011110111001000000010011101
10010011001111011101110011111000
11100010000010110000001010010011
00000001101011000000000111100111
11000010000010100000001000111000
01000000111011000010000110111011
01000111000010001000011000101001
11101000000111110110110100010010
11110010101010100011101111010000
00011101000111100100110101111111
11010010011000000110000010100000
01000100010010000010100110101101
01001011011000100110000010101101
11011010100010110010010010001000
11110110111101100111110111010001
01011011011010110010010001001101
11001110111001100010100111100001
11011000000010111101010110000101
11001010111101100010010010001101
10100010010110110010001001111100
10011111110110010100010011000101
10110010011110000110001011011100
10011110111100100000110010011101
10111110111010100100001110000100
10110010111101111100100110010001
10111010100101011000001001001100
11011110010100000100100001001100
10110010001100011011001011101100
10111010111100000110100010001101
10110110101010110001011010101100
10111001111101100100100010010101
00101101010101011001101011111000
11101101100100001001011111101100
00100000111101111001011010001100
11111001110000001100110010001100
00000010111110111111011010001000
11010001110001100000100010001101
10000001111001000101100111110111
00011000111010001110010100100100
11101110111100000001100100000101
00011001111110001100000100100111
10100100111101000001110101001100
10010011100110101110100100001110
11101000101000001000001101010110
00111000111100110000100100100000
11101110101000101100101100000010
10010000111010111000111110000000
10001100100000101101111100010010
10110011100110011101111111010010
11000001000110100100100100010111
00000000110000100000100100101000
11001111100010101110000100000010
00010110111010111110110101000010
10010111001101101111000101011010
00110110111110110111101101010010
10001000010111100111101000110011
01001100100000110110010101100001
11110100101110010000111011000100
01111001111001101000100110110100
10101001010101011011101110010111
10000111110000100111011101100010
10101001011101101010001111010111
10101010100000111101111111000011
10001101110010100100111110011011
10000111100110001010100110100110
11111010101101010001001001000101
11111000111000010000101111010100
11110100101001001001011011000101
00111001110101101001000110010010
10001111000110101111101110010111
00010110100110111111111101100011
10010011010111100100011000000011
00100110110111001010100110100000
01101010011010011000011010111001
11000100111111100111011001111100
01111111000000111110011011011011
10001110111101111111111111010010
11111111010100111100011001011101
11001110111100110111100111110011
01000111010011001010100011111101
11001111100110011111010000100111
01111110010000011011011011011000
10101100100111110101010000010111
01111011110000111101011001001000
11101001101100110001100110100010
00010001011001011101101001100101
01001100100010010001000000100110
01000010000000011111111100000111
00111101100010010001001010000110
00001111110011011100111000110010
00100011100110000101011111100111
01010111110010100110000110111101
00000111101011100110000001011101
01011110011001110000000011101000
01101001010111111001010000001100
01100011001101101110000100010110
11111010011101010101111011001010
00001010110010001110000100110011
01001110001010100101011001101011
01000110010011000010100100111001
01000111000010001011011000111101
01110010111101010000010010100101
01101001010101011001100010011100
01111000101001110100000001000110
11011000011100111101101010101010
01001111110010001010100100110111
11001111101010100111011001101011
01001111010000001011100110111000
01100111000011011011010000111101
00001111110110011110111101111100
10010111111000011110010010000101
10001111010010001100001100011100
11010111111100010100110110000101
10111110110110001110111100110100
10100110110100011110111110100000
00001011000111101110001001011110
10010111111010000111111000000000
10000111010111001110101110011110
10000111111110000110011000001101
10111110111111111000011110000100
10101110110100001110101010001100
00010011000110111010001001111111
00001001110000001111001000011100
00000011010110111110100010011111
00001001110001000110001000001001
10010011011111111100010100000111
11001101110101000110001110001001
01001000101001101011011010011111
00110011100101011101101001010101
10011100011101101000011110101101
00101010100100011100101110100001
10001000001110111000001100111101
01001110101100011110101010100110
11101100111000000000011110001100
10110001100101111101011100010001
11111101101001001000011110001100
10100010100101111101100110010001
10110100001010010100001011001101
11100010100101010110101100110100
11111100111010000000011010001111
10110010100001111100010111000001
11101110101011000100011110001101
10110011100101111000100111010001
11101101000011111100011111101101
11101010100111110101101111110001
10111010110110010000000001001000
10010001001000100000110111011000
10100100100100000000000000011100
10010001001000100000011110011000
10101111000110010001110010001100
10110001000100101000001110001100
11101000100110010100100001011010
00010100011110101001111111011010
10000111010110101110000110011010
10010001010010101111010111010011
10011111010100100000110110001100
10110001010100100110010111001001
01100111010110011111100110100001
10110100010110100011110001111010
11100111010100101110010000010000
10110100011110100011110011010011
11111011010110101101010010000000
10110100110110100010100111001001
11010101010001101001000001010001
00000101010110001010011111101010
11011101011011001001110011101101
01100111010100000110000110101010
10110100101011101101110111001101
01011011010101001101010111101001
10010101011111100110110110011011
01001111010100001010000110101010
10110001111000011101000011101101
01111000010100100000100100101101
11100000101000011101000011101110
01110000010001100000001101111101
10100100010100111101110000001101
01101110010100000110100110101100
10100000101100010001100001100110
01111000110101100000101100111101
10101000100010000101000101010110
01010000001011101000011111011001
11010111000101000011100111101100
00011011010000101000000110111001
10100110111101000000010010001110
10100101110000101100101111101100
00100111111101000100000110100100
00100010000000001010001100101010
11111110000110000001110101000110
00110000011000100000100110101001
10101111101110100000101100010010
10110011110000001001010110001000
10110100011011001010010110111101
00000011000100001111110101101011
10000010010110100100100000100010
00010110011010100000111110101000
10000100001110101110101110000011
00000011111010101111011101100001
10000110111011001000010111001111
10011011111100100110100100000000
11001001101000001001010100000100
01111100011111110000111110110110
10000101010001101110100110010011
00000111000111111110010001100011
10111000111000000001010101101101
00101010011101000101110110110101
11001001100010101101000110110001
00110110010010001110111000101011
11010100011101101011100111101101
00001011000100100110010001111011
11111011101100010001010001000100
10111000011001100000101110011100
11111101111011101001110110001100
00010111010110001111000111101011
10111000001110010001100011110101
01101000011000100000100000111100
11111001100110100111010000000011
00011111011011001010000111000110
01011001000111011111111011011011
00000000000110000111001010010110
01001000000111011101011110011000
00011010001000010100000011011110
01001001000101001110001101010111
00111000001000110100111010100110
01011001010111010011111111011001
01001011100101101011001011010101
01001001010100010011011100001101
11101000000101111100010010101101
01001001010100110111011100000101
00101000110101110110011011101100
11011101111100010011011110011101
10001101101001111010010111110101
01111001010101010011010110011001
01101001000000101010010010111101
01001101101101000011011110011101
00101011100101101000011011111101
10001110100101101110100100000110
00010110010101111101011100000011
11110111110000001001010001111100
00111001011001100010111010110010
10010100100101101100000110101000
00010010000010011100100010101011
10101100000101101110100110010011
00000111000100111100011101100011
11110011111100010001010011110101
10111000011001000010101010111110
01010101010101101110100110111000
00010110000001101101000001101011
11101100101011101110100110011110
00010010010100110101011010100011
01011111100100010001010001100100
10111100011001010010100010110110
00010100010001001100100110111000
00010111010100100101000001111011
00010101000010100111110110111011
11000111100010001110010011001101
01110000111000010001010101100100
11110010101101100101100010111100
00001001100010111111010110111010
11110110000011010100111011001100
00010001010100011001100101101101
01011111001100100100001001101101
01000000101000110111110001111000
01110000001011101011000010011100
00101000000001110101110110110011
11101001000110001111011011111000
01100000101100010001010000000110
11111000101001100000101010001100
01001001000011101111100110110111
01000111000010001111011001101001
01110100111010010011110111101000
01101111001111000111100010011101
00110111101001111101100101101000
10010010011111001110101101111101
00010000001101101101000101111101
00000010011110100110110001111101
00010000011101101101000100111111
00110011011100000100010010101101
00110001001101011001100001001000
11001010010110101010100100111010
00000000000101111101000011111101
01001010010100001100100100101001
00100000100110111001000010111111
01111010011100101100000000101101
10111011000101011001100011101000
11101001010110101010000111111110
00000000011101011001100010111001
01101001000010101100001001101101
00100000110110111011000010110111
00010001010010101000011101111101
11001011110110111110101101110000
01001100011111010010101001010011
11010010111010101110101100110000
01011100011010000110110100101101
00010100111111101110101110100000
00011001111011100000010000000101
11001010110111110110111000001110
01110100010111010110111110001000
10010010101111110101111101101110
01111000011101000110100110001100
10010000101110010101111110100100
11011000110001110000100110000101
10010011101111010101011011001100
11111101110101000010101110111000
10000010101111010111011000001100
11111000110101100110111010011000
10001010100111110111101110110110
11011101010011110110110010010101
11011101011011001100011100111011
01001111100001010111100010100010
11011001011001011111011010100111
01001110111101110101100100100000
11110010011010101110001100110111
01000110111011110110110110110010
11010100011001000111011010110101
11001111100001011110000100100100
01111010111001011001011001101111
11001100101101110010101110110100
11100000101001111101011000110100
11001110100001110101011010010010
11001100011011001000111110111111
00101011100001011010001100100011
11011000111011010001111010001001
01101011000001010000100110110111
01100000101001011010011011011111
01001011101001011101011111110011
10101111010011110110111001011100
10110011101001010111001111010100
10111111110011000100111001011110
11111001111000010100000111000101
10101111110010010110111010011110
10110010111011011100001111000101
10101111110110110000111001001110
10110011111001110101001110000100
10011111010110000010101011011110
10111111111010011110011111000101
10110111100010000110111111011110
11111010111101010100001111000100
10100011100010100110111000111110
10110010111011010101000111010100
10100011000110000000111001011100
10101011111001010100101110000100
10110011000010100101101000101010
11101110111101010100001110000100
01011000100110110100010001100111
11110100101000100001100010001110
00001001000100111111110110010110
11011111000000111111111001100010
00011011010101111111110100011000
10011110101010010111110010100011
00010101010101111011100100111001
01000111000110001111010000111111
00110000110000010001010001001000
11101001000101110000100010111110
00110011001101111101000000000101
11111011100000110101111000100010
01100010001000010001000000000110
11000000001000011101001000001100
00000001010000011011110110010111
01010111000010011111011001000111
00000110010001010010010100011001
01110111001010010111010010010111
00010110101000101110011010000000
10111011101100011101100000100110
00100010001001111010011010001100
10110011111101110100100110000110
11100010011001101100011100010010
10101110110101110111111110000010
00110010101000011000001011011000
11100011101011010111001100000110
00100000001001111001011011011011
11100010100101010101011111010110
00100000111001111110011001010010
01100110100101010101110100010110
00001001010010111110101011110011
01101110001010010111001011100010
00001001010011101110110110010011
00001111001010010101011001000011
00001000011000011110111010010011
00001110001010010111110111100011
01110110011000100000110110011001
11100001000111101000101010011100
00011010101100111100010100100110
11111001111101100000100011011000
00001011000110101110000101000110
11011100011000110101011001001111
00000111010011001110110110111001
00000111100010001011011001001101
01010000011001010010000110111001
01100000000111000010100000111100
01110010101101110100000010000110
01111001011101100100101000011100
00101101100011111110000110000111
10010011111000111101011001001011
00001011010000000010100110011101
11000111000010010111011001101111
01010110011001010010110110111001
11100100100111001010100010011100
11110110101100001100000011000110
00011001010111011100010011010111
11100101010101101110100100111011
00000111010010111110010001100011
11010011111000010001000101101100
01111000011100000011101000011110
01110110101110010001010011100100
00111000011101000000000000011011
01000100010001101110110110111011
00000111010111111111011001101011
01010011110100000101000011101011
01111000011010100011100000111110
11110110100110010001010001001100
00111000111101000000100111010111
10101110001001001110000100111100
00010111010100101111011001111011
01010101011000100111100110111001
01100100011000000011100000111011
01011110100011001010101111111010
10111001010101011001011000010110
01011110111001001110111110101001
01001101110101011011000000110111
11011111011101011101001100101000
01000010110011010011100100100111
11011111110001001010101110001010
10010111010101111111011100000011
11111110111001001010111111001100
10000001110101111010100110000111
11011110001001010000011001001101
01100001110101010010100100110110
11011111110000100000001100101100
10011111110000110011100001100111
11011111001000000010111101001000
10101111111101110010000100000110
11011110101001101110111111001010
11001111001111011011001100110011
11111110111101011000001000000100
00111001111100110100100100010100
11101110101100100100001000010110
00100000010000001001111101010011
01000110101100010100001011011010
00110000001010111001111100010110
11111110101110110000011000000100
00110000110100110000100100010100
10101110101100100000101000000010
00110011011010111101111111010010
10011111010010100110101100111010
10010110011110111111011101110010
10001111110010000110101110011010
00010111010110011111011101110010
11111111100100001110001111011000
00010100011110111111110101010010
11010111011000001000001001001110
10011100111000110110110101010010
01101010001110010101111011000100
11111001110100001001100011111101
00001001010101111110101110011011
11001111110010101111010101101101
11110010011110010001111011010101
11101000100001110000011110000100
11111010101110010001011011000100
11111000111001001001100011011101
00001001010101101110101110011011
00000111100010011111010101100011
01111010111000010011111001010000
11111000111001110001100110010000
01010010101100010101011001001000
11111100110100001010100111001100
00001001010001111111101110011011
01000111000110111111011101100011
01110010111100110101111011000000
11001100100110010010100110010100
11100010011001001001010001001100
10111100111101100000100010101101
00010001101011110111010100110010
01010100000011001010011010101010
00110100010101101011100110111100
00001011001110001111010001111001
01001001101110111111000100110011
01100010001011001011011000101110
00010000010101011111100110101011
01001011000110001111010001101001
01101000010000010001010001011101
11111000111001100000101010111101
01011100011101001111110111101011
01000011000110010101010011110011
01101000010001010001000001101100
01111000001001100000100010111100
01001001000011110111010000010010
01110111001011001010001010001100
11001011010110001000101100111100
11010100111000010101101111000100
10010110000011100100101100110100
01010100111010010111101100000101
10110110100111110110111101010111
11000001111000010001001110010100
11011010100010100110111000001110
11011011111001011101111110000100
10101111010110100110111100011110
10001110111000010110001110000000
11010110010110000100101000101100
10011110111011010010100110000101
10010100100011100100101000101100
11000111111101010111110110111101
10110110101010010000001000001100
11110010111101110000101110010100
10110001000110100100001000011110
10100011111001111111101110000100
00011010101101111111111111001110
11111010100100010100000010010011
10101010101010010010011001010010
10010010101010100001101111010010
00011001010100110110101110011011
10001111000010011010000011000111
01011010101100011101111111001110
10111000111100110100101110000110
10101110100000100010011000000110
10010000101011110111111111010010
10011101010001100010101110011101
00000111000110011111010101100101
11001010000101011111001100000110
10110010100010110100101110000001
10111110100000101100111101000010
10010011100011011111011111010011
11101111010000011001101101111101
10000111100110010111011100000111
01011101011101001011000101100110
01111100101110110000100011101110
11101111011101111001111100110010
11111000110110000000101111111100
01011111011001101101110101111000
10011101110111101110010001110101
01000101111101101111101100100110
01111111100110111100011001101111
01111111101001111101011111100100
10111011110111101000101111001110
11101110101001101101011110110010
10110010110111110111011101000111
00100111111101001011100110111110
10111011000110100000011001101111
00100110101001111101000111110010
10110110000111001000101000011101
00100110111001101101000110110000
11111110010111100000111101010011
00001111111110000110111110010100
10010101010111110010110101011011
10011111100100110100111100000100
00111110011111010010100010000001
10011011100100100101111001010110
01110101001010110001000110000100
10110110111101000001111110001000
10010011010101001110010110001011
10110011101101010111111011001000
01011010000111101110110000011010
00010011001100110101101001100100
01001100001010000110111000101100
10110111111110000001111110111000
10010001000011001010000000010001
00110010101111010001101111111001
01000011000110001000100000111010
00000000000110011011111101111011
01000111000010000111111000111010
10000110010000001110000000110001
00110010011010100111011000101001
00010101011010000110100100110001
01100010011010101110001000111001
10000000111100001111000110100011
00100011110110101100011000101010
10101001001100111100000001110101
01100110011010100111111001111011
00010001011110111111100100011111
00001010011010100111000000101101
00110000111100010001000010110101
11001001010101101100101000101101
00000001011100010101000001010111
01000011011000000110101111101011
00000001001100110001000001011101
01001011011000100110000000001100
00000000001110010011000000111111
01100001010000101000001000101110
00010101001000101100001010011101
10000111101100011100100100100111
00010000001101001110111110001111
00000010110010011110111000100111
10101000001100101010001010010011
00100110111110010101111111000010
00010100001001111101011001101101
01000011101101110111100000101111
00100001011001010101001011111101
01100010000101100100000000101100
01100000001000111001001011010111
01000010101100011101111100110110
00001000101000011001011001111111
01000010001010110101001101110010
00100000011010010111101011111011
01000011000010111101011101100010
01101000011010001010100110111111
00000011000010011101011101110011
10001000010010000111001101110010
00011110101000110000100000100101
11101100010000010011001110011001
10010111101011111011011111000111
10001101011001010001111110101001
10001111100100011010010011100110
11111000101100111111111001100110
00011000111000110100111111000000
11101101100000100110101101010010
10010111101011011101011111000111
10001101010001000001111110011001
10000111100010011011010110100111
11111010101101111101001001000111
00011000101101110100101100010100
10100100100100101110011000111010
00010011100001110101011011010101
10101111010001010011001101101101
11010101101010011011011101000111
11101011100010010000000100011110
00111001110101001001011101011101
10001100010101000010100010111100
00001101000110010010010100101101
00010010010100010001101111001101
11101010010100001000100011101100
11101011010110110100100001011110
10110111111010010001011111100101
10001111010110000010101100011111
00000110001100011111011111100001
11011111010110000000111111011100
10010000111110001000100010001100
11111101000110110110111100001100
10010100111110100010111010011101
11101011100110000100111100011100
10010001111110100010010110010101
11011001000110100100111101001100
10110010011100001011001110001101
00011101010000101100010110101000
10110110010110111111111000000111
01100111101000011001000001101101
00111001011011000001111000111011
00010100100101101101010100101010
00010011000010101111010010101011
00001001010101101110100110110011
00100110000110111111011000100011
01110010111100010001010011111101
01111000011001000001100000111110
01000100010101101111100110111010
00010110000110101111010001101011
01011100100001101010100110100011
00110000000100101111011010100011
01010001111110010101010010100001
10111100011001000010100000101110
01000100000101001010100101101001
00110111010100100101011001101011
11011000011011011011011110011001
01000001101000110111010100110011
11111010111011001000011100011000
10100000100111110001010110010010
11011001100111010000011101001101
11000010100011111101000110010001
11101000111010111110011110010101
00111101110001110110111111010011
11101110111010101100011100010110
10111100111011110111110111010010
10011110000110101100011101001100
10101010101001111111111111010011
11101000010011100111011001011111
00010100100011110101011110010001
11111110101000101100011011011000
10100000101011110111110110010010
11011000000001010101011001001100
11100010101101110111100110010011
11110100000111001111000111101101
01001011011000001010000101101001
11100111010110101100000111101101
00001001110000100000000100111101
11100101000111000000010111101000
00111010010111100010001100111110
11110110010111101110010110111100
00111010010000100010100110111101
11111101100110101100010100010101
10110010111000111000001110110000
11110101101011001000110111011001
00100011110110001011001101110011
11110010101001101110010000100010
10111110010101101110110101101000
10111101011101101111100100110011
00011110110100011110111101100011
10110101011001101001010001011101
00011110110110000111001111100010
10111011101111011010001011000110
00111110011100010100111110010010
10101110111110011110011001000010
10010001101010010100011111010011
00011101010100110110001111001010
10010111111010111010010100010111
11011010101101111101111011000110
10111000111100010100100110000010
10101110100000001100111001000110
10110001111001110100111110000010
10001111110000100110101100011010
10010111100110111111010101010001
10011011111101001111111110010110
10111100110100010110101110000010
10011110101110101100011001100010
10110000111010011000101110010011
10101111100110001011001001000110
10010001111010110100011111010011
10110110111000010100101111111100
01100011111001010110000100100101
00100110001000010001101101101101
01100011111101110000100100111100
10101000101000010111001001000110
01110101111011011000110110000100
10100011001011010001101100111110
01000110111011010000001111110100
10100000001010000101101110111011
01100010110011000010011110111100
11100100101011000100101111011101
00000011110111011100010111110100
10001101000011100100101110110111
01000010111011001110010110110010
10000101010011101110101110110111
01001011011111111110011111100001
10000101010011001110101110010111
10001111111110000110011101101101
11011111100111001110010100010110
10011110011111001101011011010010
10010000000111011101000100110011
00001010001100000110001011100011
10010001011110001101000001100111
01101110001100000110001000111010
10001110110101001110010110000100
10011111011101101110100001000011
01001011100101010001010001001101
10001101111101100010100011011010
10010001000101110101000001000110
10101101001101101110100000000010
10101111111101001011011110001100
10111101000001111010010101010011
11111011111101110011010010001001
00001001000101101010010011011110
10001000011101111011010001111001
01101001000101011110000011110010
01101100010010101110111011100011
11100000101001110001100001110110
01111100010001111011101010100011
11001100100011110001100001100101
01100011010000111000111000010011
10100001100011111001101001000110
01000111011000000101111110100011
11000100100111111011010011011001
01101010011011000111111111100011
11100101100111011011011010010111
01100011101001010110111101100010
11000101100110011011111010000111
01000101010010100100111111100011
11100101100111011010001000010000
01001101000011000110111110100011
11000101000111011010011001100111
01010100101011001110111111110011
11010000100111010001101000110111
00001111000010101110111101110110
11010010001101000100100001011100
00010001010010001111100101110010
00001111000100000110011001001011
00000000011011001001101100111001
11001011000101000010000010101100
00011011101111011100110101111000
11001110001111100110100000111100
01110001100101011001000101101110
01101010011001100000100000011100
00000001000011111111001000000010
01011010000000001100011010001101
00011001110111111011111110011100
11001111100000011010100011100100
01000000110111010111110100101000
11001000101111100110001011011101
00101100100111110111001100000101
11111011000001111000001010010101
11111101110101010011110011011000
11110011000001101001101110010010
01000001100111000001100001010011
11010100000001001011011010011011
01010001000011000011110010101011
01000000001101011001111011111100
11001001100111110111110000111011
01110000000101001001111110010010
11010101010110100110100110101001
00011011001001001111011111000011
01010101010110100001110111101001
00011001001101000101001010101101
11101111010110000011110110101001
11011100010111100011110110110001
11110011000110010001010001101100
01011000011001101000110110111100
11011001000110100101000100000001
11110000011001001000011010001100
01011011010001111011001101111111
01101100101110110000101001110100
11101001111011111101001100100110
01110100100011110000001100010100
11111101000011001100001100111000
01100001001011100011011001110001
01100111111011100010011110100111
11101011100011011000111010100100
11101011101011101100011110000110
11111111110111111110011111010101
11101111111011101100111111101100
10100111111111110011011011010001
00100111110001100011011110111011
11010011101001110101010010011101
00101110101011010111011111001000
11100010111111110000010110010101
11110111100011110000011001111000
11100010111011111011100110010100
01101111111011111101011011011111
10100110100011111011101011001100
00101101111011101100011100011110
10100111100010011101001011000110
10101101011000101001011101011111
10101111111110110111110111100100
00001101111011001001111110001111
10000111101000001110011011001100
00110111111001011001011011001100
10101111101101111101100111001100
00101011111001011001011001000100
11111100101100110000100111001100
00110111011011001001111111001100
10101000101001011000000011001100
00101100001011000001111111001100
10110110000011011000001010001100
00111000101111111101101110101110
10100100000010000100011010101100
00010111010111101010001110101111
10001111101000110111011000101001
00011010011010011000011110001110
11101010101100111101010010000001
01000110101101101110001010001110
11001011110101111110011001010001
01110010110000011000011100001100
11101010101001110111110000000001
01110010101000011001011011001100
11101000001101110000101000010100
01100110101011011110011011011000
11100000100111111001010011010001
01000111111010101100011110011100
10110010101111110001111001010000
01111110111010000100011011000000
11111010001110111000111011010001
01000110100011101110101011011010
10100111100110111001011011010010
01011101001100111011100010101000
01000101100101001001011011101100
01101001011100111101110010101001
01001111110100001000001100101101
01101110011011101001111100101001
10000000100100100111100111101100
01101101011011101001100110100001
00000111000010101000011011111101
01110101011111110001100111101100
01101101000101111011000000101100
11101010101011011101110110010100
10110000100111100001001111101100
10111111011001101111100110101010
10010110000110100011110101101011
11101101011011011101110110111001
11100100010011101011000010111101
01101111101011001100110110110000
10110011110111001101001110111100
01110110111001101110101110101100
01101011110100101010010100101101
11110110111001111110001110101100
11111011111111110110110100100101
11101111001101101101111000110101
00110101110011010010001100100101
10100110111101001000101111011000
01000011110111110001010100010101
11100010101011000001111010011110
01100001110111111000100100110100
11101110101001000100101011000110
00100001110111111000100100000100
10100000101011001010101011110010
11000010111011010101011110000000
10100101000011001110101110110011
01000111110011011111011100000011
10100110111011001010111110111011
00000111111011010001010110010101
01101111101000100110111001010101
10100001111001101001000101111101
11111111010000111100011010001000
11101111110001111010111111010110
10001111010001110100111011111111
10101110100000100111110111100011
10000110110000001010111001110110
10000011111001001101110111000010
10011101010001111111110000010010
00001111100000011111011100000011
10110110011001011011110011000101
11101111101100010101100110000010
00000011000100011110101001100111
10101110101001010101101111000010
10011011010101111111101001100111
11101111000000011111011100100011
10000010011001111101111000000111
11101010100101010111101010000111
10010000101001001110110101100101
01111000100101100100100000011000
11101101000000101110000011100110
01101100011010100100111101111100
01000101010000100010100011011010
00000111010011011111010101100101
10010010101100010001100001100010
01111000011101100000100000111000
00100001100101001010000111100011
01001010001001101000011001111110
01100101010001100010100110111001
00000111010010001111010001111101
10010010101100010100110000100010
01111000011101101100100100111100
01111000100001010001100001100111
01000111000011011100001101110101
01100101010000000010100010111101
00000111000010101101011001101101
10011110111011000001111101011000
11000010100111010000000010110101
10110010111011000000011001101110
11100000001001000000010111111100
01100010101011000000001101010110
01101000100001011000100100011100
11001011000110101110111010010111
11001011110000111111011111000001
10001101010111101110111010001111
10011111110010011111011111000001
10001101110011101110111110011111
10001111110110001110111111010001
11111110001100010010011001001001
11010010111101100000100100110101
11111110101110010000001011101100
11000000111101100010100100110100
11110011001100010000001001100100
01001100110101110010100100011100
11100000000101001111110101110011
01101010100110001100100111110010
11100001100000001001010001000111
00101101101010001100010111110010
11110001100100100101010111010101
11001111100111101011011110110011
11001001010111001011010111110011
01101100111011111010000111110110
11101001110100001011110100010011
00001111101010011100000111100010
11110101110100101001110110000001
00011111101101101110000110100011
11000001101010110111110100110011
01001111001011010100000101100111
11110100111000101111010100010111
00011011111001110111010111100011
11110110111000100101010100001101
10010111111101111110100110010011
00101110101111001000010111000010
10110011010110101100011111011001
10101110111010100100010111000111
10010011010100101101011011011001
10110111111011100100010111001001
10110111010000101110100101011001
01101010101010110100000011110010
10010010011010100000100001011001
10101100001110001010000011110000
00010111011010100111010001111000
00110101011010001010000111011001
10000010010000100110100001111001
01001101001011101100000011110011
10010100010010100010111011111000
10100101011110011000000011010001
10011100011000101100101011111000
11001001010110001011000111010001
10010010010000100110010011111001
10101000111011011001000010111101
00001011000010100101011011111000
00100100111011110000011010011101
10100011100000101001011111000000
11110110111011000000010110001110
10110011000101111101111111011001
01101000010010111100010011010101
11010011011001100101011010111000
11000001010010000110000010011001
10010110111010010101010110110001
10110110000010000000011111011111
10110010110100010101100010111000
11101000000010010110010001110011
11000000011011100011111010111001
11010000010110111110100000011011
10000110111010010011111000100000
11010001001110100000110010001111
10101000111000101100100010100000
11001101010011101110111110010011
10101001100101111111011111100001
10001001010111101110111110000111
11001100101110011111111111000001
11001001110111101110111110110111
10000101100110111101111011100001
11101100101000000000011101001000
10100010100001110000000110010000
11111010101000010001011001001001
01001000101100110000000100010100
11111000101000011000011101101101
01100110101101110010100000010100
10001100110011101110111011111011
10001011101111011101011111000101
10001101010011011101111011011111
11001011101011011100011111010101
01000100110011111110111100111011
11001010101011011000011111010101
10111011001111111001011000001000
10010011011101100111110101001011
10010000111011010101000001101000
01010010001111000110100010101011
00100000111111111101001000101100
01010011001001110100010000010101
11110100101111011101011001101000
01100011001111001010011000011110
00010000101111011101000011101001
01100000000100000100000000101101
00000000100111110111001001100011
01111000001000100101111000101100
10011101111111011101111010001000
01010101000111001010001110001101
10101000111111011001111011111001
11011001001101000111000010111101
00101000110110110111001001111010
01011100010010110011110000011100
00111011110011000010001100110010
11100000000011111001011011010000
00001110100010100010001011110010
10110101000010010101001011010000
00011011110010010110011100010010
10110101010000100011101011011001
01011111010110001110111110010010
10001111111010011110010001000000
00011111000110001110001110000100
10111101111000011101011001000000
00011111111111100100011010000000
10101011111100101010101010001000
01100110001100001010001101001100
10001111111001100110100000011101
01111111001101011000011001000010
10001100110101100010100010011101
00100111001001011010011000000000
11001111110101101010000010011101
00111111100100101100011001000000
10110101111010011101111111001001
00111111100100101100011001001110
10101110111110011101111111001001
00011111011110001000001100010110
10101110111110011100111101001000
00011011000000101000111101110011
10000110101010001101001011101011
00001101100100101100000011010001
10101110001010001101001001001110
00010100011110101010100110111011
00101111000110001110010000101110
00111001001010011000101111101111
00101000001000001001111101101110
00010101000100001100000011001001
00001011000100001111000001101011
00000100011100001010100010111101
00101001000100001110011000101101
10010010010111011010000100011111
11010010011001100110011010010001
11111010110111001110011110001101
10011011011101111100011000010001
11110110110111001110001100101101
10010010011111101110001001010001
11111110110111111110011100001100
10111000111101100100010000011001
11101110111111111110011001000100
10011100111101110110011111011001
11011111100111101100011001011000
10110110111011110011000111010001
01101111110001101110000000010110
10111100111111111100010010011100
01011111110001111110010001110000
11010101110001100000101000011101
11011111110001101100010001111000
11111110010110100011100001010010
11001001011001011001110001011101
10110000000110010000001111010110
01001000101000010101110101010011
00110000000010000000000010111110
01011000101011000101110110010011
01010001001011001000001110111111
11001001000111101110100110100011
00111111001010011110010110100011
10010101010101101111100110000000
00111111000010001111011111101011
00000101010100001111000100000001
00111110001100100110111010101011
10011110111100010011000101001100
00111110001100100110100101101111
01101010101101010001000001000100
00110100010100100110100101101111
00001000100100110001000000010100
00110100000000101000000100101100
