11111111001111000010111001011100
01011111011101100011001011111111
01101100001101100100110011101100
11010010000101011001000111111101
01101111011110001000111011110100
11001010110101110011001111011111
11111011001000000100110001000100
11010100100100001011001011111010
01101000001111101100010011101000
11001110001101111100001111111001
00001100011011001001010011100000
11101100110111001000011110001011
10111010001100001011110011101100
01100111111100001010000010011000
10000010001110010010110011100000
01001110111100000111000110111000
00010010001111101111010011001100
11100110110100110100001110011001
10001011101010101111001000011000
10101001000001000010010011110111
01101101101001110101000101011110
11010101000000101001001001110100
01111111111000010000100101011010
00110001010000001001111111000110
10111010110100011000110010101101
10000101000100011001001110001010
10010000101111001100110110100001
00011110011101111101001110010110
01000001111001011011010111000000
11101110011001010100011011000101
00101000110101101001000100100100
11000101010100011010101001000000
00100011010110010000110110100100
00010110011100000110001010100010
00000000100011110111000010101100
01110100000000010110011110100011
00101111011010000110110001001100
01011101101011100000011111110110
11101000000110101100000011111110
11010110101000000100001101101011
01101000000010100011000101110001
10000110100000000010011101001011
01111011101001001111010001000100
01100000110011010101000110001100
11000011001010010011010001000010
01011010111011111011001110011011
10010000000001111011000001000010
11101010111010110000010100011011
00010011101101001111110011111100
01111000111001110100100010010100
00000011100100011000110011000010
11001000100001001010101010001110
00010011101110110101110011001111
11000010000000110110010100111011
11001000000110111110001100101011
11011111001110101010110101011000
11111000000101111001000000001011
01100111000110011101000100001000
11011010010011010000111100101110
00100101100010000111111110101010
10000000101010010010110111110111
11100011010110000011001100100011
10110001101111101111110101001010
01011011011011110110000100000001
01000010111101001001000101100010
01001000011111001000110110000000
00100000101001100101000011110110
10001001010001001000101100000101
00100011111000000010110111010010
10011001001001101011011100110111
01011011101000100110010011011110
11110000000000110101001000110101
01011010111111000100010111111101
01110010100001011101001011001101
01010010101011001110110110100011
11101010110101110101000010110101
01000010111001001011000011010010
11101010110001011000010010010101
01100000010110100000010110101000
01000110111101110110100010011110
01100000011010001100000010111001
01101010111101010101010010110000
00101011111010010110001010110101
01011000100000100101011000100111
01001000010010100011001110000111
00110111101100001010101001000011
11111000000001110101001110101111
01111101010100011000000101100010
01101111010001000011001110110001
01101101010010001000111001010100
01011000110101011100111110110101
00100100100001011111101011001110
10001000110110010110111110101101
10101001100001010111110010101100
00001001110111111011111010100001
00101001001001110100110000110100
01011000010011001101011110101001
00100011111100111110100011001000
01101000010000010010001110100001
10100011000100111011111001001000
00101000000010110011101110101001
10111001001000100001011000110011
01011010000110110000001110001011
10010111000100010111111111011011
01101000000011111011001110101011
10001111010100111000100001001001
01101010010001000101111110100100
10001010010111000010000001010001
01010111101111110011001010000111
00100000010000011111111000110011
11010110111010100111101001010011
00101001011011001101111101000000
11000101110100010011001111010011
00100101011110010100100001100000
00001001001111010100101000101100
10001110000101110110010011111101
11101101001010010010111001110001
10110100000011100001011101001011
11111101101101100100110101101110
00010101100011111111100111111000
11001000001110000100011000101000
11011110001111010110001111111011
11101100001101101100110001101100
11001110000111111001000111011001
11101111001011001100010101101100
10011110111111100011011111111110
10100000001010111111100100101011
10100111000010111001110000001010
10010000011100111101000110101011
00100111000010010101100000101100
00110011011000011110000110010111
00100001111010001011101000001110
10000000011000110010110100100011
10100111000111111111110000001010
00000000011111011101000110101011
00111011000110110111110000101100
00000000111000110011000110011011
00111011010010101011110000001101
01100001101001001000100010010100
10010101010101011000111000011111
00000010010111000000010110011111
10011010011101111110100000111011
00110011100000100100000010010101
10011000010001011000011000100001
00101011110100011000001000111001
11011001000101100111110000100010
01000011100111000010110010011100
11110010100100110101011010101111
00001011101011001111110010111000
11101000011001101011011000110111
00110001100100111111000100010111
11100111000100011101101000000000
00100011010010001100000110111000
01011110001101001000010000001101
00100011010000110110000010101000
11111110000101100001011000101011
10110001110100111001101011011011
00000101011010001010100101000010
00011000000010010011000111000111
01110111011100001010000001000010
00011000000000010101000110100111
01100111010010011000000000101000
10101111111000110011101000010001
10101001001010001110111101100010
11111100010100010101001100111111
00100101111110011111100111100010
01100111110001010011101110010111
00100001100010001011101111000110
10001101101010110011101000010011
10100101000011001011111101000011
11011100010101010101111100111010
00011101111010100101110111100000
01111110110101100011001110111111
00100101110010011000100011101101
00101111001001101110101000110101
11101010010011011000110001001111
11001111011000000100111100101001
11011010111011110001011011101011
01011100000010111010010000011100
11001111110111111000111011011101
10011100000100010101101110101101
01100101100110111101101111001000
01000111110101001100111110110011
00101000111111101011110111000111
00100101100111111111001011011000
11111000011111100100000000110100
11111100010110101100011100101000
01011110111111111101100111110000
01101111110000010010001000110000
01100100110101001010011011010011
10111111100110101110001001111100
11010100000011100111001101110001
11011000000010010000011100000000
01010010111010100111001111111010
01011100100011010011001000000100
01101111100110010000010111001011
11101111010011000100111100101000
11011101111111100001100101110000
01111101010000111001001100001001
10100101100110101001111111101011
01010000010101111100000110101101
10100111110110111111110011011000
10100010010000010111010010100101
10111110100110011011001001001011
11001101110101000001111000010001
01100101110110011100101110001000
11000000010110110010100010000001
00110110101110000111011111101010
00000000100110111111110010101000
00111110100110110100000110111001
11000011111101001011101001011000
01011000111001100110100111110011
11000011011000000000001010010100
00010000101100001110100110000001
10110010001011000100111010100100
01011100111101000111001110110011
10010000001001011111110011100111
01110010110010011001101100101110
10010111111110011001111001000010
00001001111010001110110110010100
11011100010101101001100001001011
00110101111110010100100110001000
00100001101111110101101010111000
10011000011001100110010000111111
10100101101100110110101000011101
10100011000000100110111100111111
10010110000110110100110101011111
00010001100010110111101110101110
00100100000011000110011110100101
10001100000101111001001010001111
10110101011101001100111100110101
00001011010001111001100000001100
11000111010001001010110000111000
00101010111001111011110010011100
01010001010101101100110111100110
11000110010101011101011000001011
00001000110010010001000011101001
01110110100110011111011110111010
10001000010101111011100001101011
00101111100110010111010100111001
00000111101011110011001001101010
11011010011111000010011000110011
00101101111001111101001001000111
01100000011010010100000100110000
11111111011101000100110101010111
00010001110010001110101111000110
10000111101001000100011011110111
10001000000111001010001100100101
00010111101111000111100001000010
00111000001011110110000100110111
01010111111101000010110101011010
00100001101010001000100110000100
01001111101110101101010001010010
01011010111010100110000011110100
01101100111101001000000111110110
01010010110000010101100011111110
01101100111011000000010011111100
11011010110001100011011011011111
01111110101000100110110011010101
11010110100010110111000011101101
01111110010011001110000111110100
01001110110111111001001011111111
01001101110001000111010111110000
11101110110111101000010011011101
00100101001100111111000111011001
01010111111000011010000000001100
00000000010011011001000011001001
01100110111100000011000011111010
01010100010010010111100111100101
01101110110000011111011010001011
11011100110101011101101100100001
00100000011001010001101100000100
10001110110010110011101000000001
00100001001000001110111100000110
10011110100111111100111000000001
00100001001010010111100000100100
01001011110111101111001100111010
00101001011000101110111000110111
10011100110100111011001100010111
10100001000000001010100000000101
10001011100110100101101100010111
10010011001000100010101000000111
11000000111010010011000100100011
10101011000011110101111000110111
11110100110101101111000100101111
10111011010011011001100000011101
01100001110101000000010110010011
10011011011101111000101000000101
00101000001000100100011001101100
11011010010101011001000110111111
00101000001001100000010011101100
11010010010101001010100010011101
01101001001011100001010011101000
11001110010101111000110110011111
00111010001000100010010011011100
11010110011000000000001110110101
01111010000011100010010011000100
11011110011101000010001110011101
01111000001011000000000011100000
11011110011101111010111110011001
10011011101100001011110001010000
11000100111000001011100111110001
00011011101011001000110011010100
11000100011001000011001111110101
01001111011011000101100011000000
11000100011000000101001110011011
00100011001111101110010011011000
11001110011101100010000001011101
10100000100101110111000000001100
11000110001011110110010000010111
11011111111110010000111110011110
00010000100000100111111011100110
01011000000011000010000100100101
01100110010110010001001110001000
11010100001001010011101100100011
01101010000111111101010111010111
11110101100100001011011000000010
11101001011011011100110111000100
01100000010101101001000110101100
01010111001100000000101100111000
00101111011000110000001110010101
10010001001010001010101100100010
10111111101110110101001100011100
01010001100010100111000100100011
10000100110111110101000011111110
00011100001011000110110100110010
01010100000100100000001011111111
10110101000000010110101000101110
00111100000110110110111110001001
00110001100100100110011000101110
10010100111011000011010101001111
00111010000111010101011110110111
00010100100001001011000111100010
11101110111101011000110010011111
00101101110000011001111011001011
10101111011100101000100000011100
00100111110101000100110010110100
10001000110001101010100010000111
00000011100010110110001011011100
10110110101101100111011010100011
00111100100010110100111111001101
01110101001100110101101000001001
10100001010110101010000101001010
00001101101000101010010001000010
01101100010100111100000111110110
11110111011100001010101001001001
01100100000010010110000110111101
10010001000000000011011000101111
10010000010000010011110001000011
00100100110110011001011110001110
11010100100011001011010111000111
01111110111110010101100101110101
01000100110001001011000111110011
11101010111101001001110010010100
00100011111101101101110011111101
01000000000100010110000100010100
00000011101111100000110011100010
00011000110101000111011110000110
00010111101110110111100011001110
10100000100000010111011010100111
10101101100100111011011000011001
10101001001000101110110001000101
11111100100111101101111100101011
00011101010011110111100101101000
01001010111011000010001100110101
00100000100000001010111011111110
11111001101100110011011000001001
11100101000011010010011101001101
11111000001111001100111101101010
01011111111111110101101111011100
01001010111101001111001110110000
00001010110101011000110011011111
00111011001010110000111001000100
11010101001010101010001001101011
11101010001000100000011101100000
11010110111111101100001101111000
01001000011011000110000111010100
01010110111111000010001011111111
01010000010001001100110110101101
00100110110111011001000110001010
00000000010111111111110000101001
00111110100111111111010110111000
10001000000011111011000000100000
00101110010111110101010110101001
01101000010010101100001100000100
00000111110100111010001110011010
10101000010000110000001100101101
10110101100100101110011111001011
10111100000111110110111000101101
00101101100110110111011110101010
01011010100000000011001100000101
00110001110110000110101111010011
11001100000001001001111100000001
00111101111110111000110111000010
11101111000101101001111000000001
01011001111011100000110111111000
00000010010101000100110110100110
00001010010111011111000010001110
00000111110110010000111010011100
01000000101100010110011010011110
10010101110110111011111010001000
00110110000110010110111111111000
01100110000001100010001111011110
00110010011011000100001001110101
01111111010000000101001111110110
00110100010100001010101011000100
11111111010110110000111000010101
00000101001110101001100101000010
11011100000011001110010111100010
10111010010111010001000011111101
01001100100001001011001111101010
01111110111011111000111011111111
11111101010100001000111001101011
10010101011010101001100011001101
00101111101011001001110001010000
11011000111011000010001100110111
01011101101101000011110001010110
11000000110001001100101111110101
10011111111010010100111001011001
00010000101011100110101111100111
00101001001011010110010010110101
10100000100101101001001010001111
01001011101110111110100001101000
00101010101001110110010110011011
10101101111100111000010001000001
10101101101010111100110111001001
10101000000101111101010010101101
10100111001100111010000010001001
10101000010000010000010100101001
00110111100100101111011110001010
10010100010101010101000000101101
00100101100010010111110111101010
01111100010001000010011100100010
01000010010011001001110101011101
00111100010000001011001101010010
11101001010111001011100101000010
00101000010001011010001100111011
01001111010000011011100101111101
11101111001011110101001101011010
11111101000011101010110101110011
01101111011000100101001111010010
11000101010010000001101001111010
00101110010000000000001111011111
00010101100010000010100001101010
11010100011011111011000100101010
11110111100011110001111101011011
11110100011000011111000111011010
11101111110011111001100001011000
01100100111001011011000111010011
01110111110011101001110001001000
10101101011010101011000101000011
10011101001010100010110100110100
01011000011001101001001110100111
00010111011000000110100001001100
11111100011000000001001110110011
00100011000000001010101011001110
11010010001001001100010111100111
10100010110101011101101000001100
01000010111010100001000111100110
10011010110101001010111010010111
11110000101001111011001011001010
01111111011100110101110000110001
00000011110111101100000011101110
10001110111101010100000010110101
00000011101010100011001011011100
10100010000101001001011000001101
00111011101010000100101111001111
00001101100001101101001010000010
01101111111000100011001001010001
01011001011001000000110001010111
01111010001100000100111011111100
11010000000000000001101001100101
00101111101000100010110011010100
11011000011001001010011101110111
01011100011101010011101000000101
00100101100010011101101101101100
01101011010101000000101000110100
01001111111101111010100001011110
10111001100101101110110010001100
11101100001101111001010001111101
11001100010110111001100000001001
00110101111010010110110101001000
10001000010000010000000111001101
01110111100100000011101101001010
10011000000111010101110000000101
01010111000110110111011100101011
01001111010010100101011010000000
11011101011111000010010111010001
11111100000100110101001110001111
00100111100110110101100101111000
01111110010010010000111110110101
00111101100110101001101111011110
01011100010001010110001110010111
00100100000110000101011110000111
11011101110111100111111100110010
00001100111011001111100011110000
00000101110011101011001010010010
10100101111110011010110011011010
01101111101001100100001010110100
11011100111011101000000000011101
01101111100010000010001110011010
10110000110011001010011011100111
00111100100010110110001100011100
11010110100000111101001011001011
10101011001111001110110000100000
11011011010101101010000010010101
00101000001001101011000011011000
11110010011101011001000000111101
10001111011010010011111101011101
00011001000000101111111100100111
10101011010010010010111000100101
11110010000100100011011110110011
10110001001111101101001100101100
11011110001001110101000100110001
10000111111000100011101011010001
11101101000000001000111100001110
10101000000001101101111000000101
01100111010100011000000101000000
10101011010111010000001100101000
01011111011011000001011101100010
10010001001100110111001000010101
11100101000010011110110101000011
11000011101101010101100110010110
00010010010001000011011010100101
10000011111100000001101011010111
00010000001000000110011010100111
11110101101100111001101111011110
01010001001000000110100000110101
11100000001011100110011100100010
10011110001101110000011001111111
00100101101000100110001110110101
10101100000001101001110000010111
01111101001000101110001110001011
10000101000001101001101001000110
11100000010011010010010110100000
11001110000111111001010001011011
00101100000111111101010110101000
11101110000111111100011001001001
01101100010010001110011110101001
11101101011111111001100001001000
10010001001110100010110001000010
10011100011010101110001101010011
01010000000001101101010111101011
00111110111001011100100100111001
01000011011001000100001110110101
00010000110101001110100010001100
10100011001000010000110011010011
10100001000000001111101100001010
00010000010111000100010111101010
00010010111001010101000010110100
00010000111011000011001010010001
00101110110100010110001010110111
10110011111101101111110011111101
10100001000000111100110000100100
00000010010110001101000010111011
00001010010101000110011010111100
00010100110110110011001010000000
10111010000000010111011010110011
00110100110011111110100010100011
10101100011010111011101101010000
10110101110101010011100100111011
00100101111010000110110101110010
10010100100110111010110101010111
00110101101110011110101101001010
10000111100111000111101000110010
00101000010011001101111100110000
10010111111101010001101000010011
00111000110010001100111101000000
11011111101100001001111001011011
00010001101010000100100111000000
01000111101111000100111010110100
01011000000011111101011110010111
00000111101101000100111001011100
10011000100011110101111110100101
01110111101111100100111001011110
00010000100001100111101110110111
00101000001011000010000001000010
11011100111101100000001010111011
01111000001011101100010001101110
11010110000101110000001000111001
01100000001011000100000111110110
10011010010111001010010110011110
10110000001001011110110011001111
11110001010100001010001010111101
10110000001010010100110111100011
11011011011101011000001100111100
00000000011001011101000111100110
01111010111111011010010010111010
00010011111101101111110011111111
01100001011000000110110000100100
10100011101000111011110011001011
01101001101000001001000000100100
10010011111011010111000111010111
01100010000000000101001100010110
00111001010101011000111110001111
10110101000100111101100000101000
00000011010010011010101010101001
10001000010101110011011000010111
00000000000011111111111010000000
11101110000111011101010000010001
00110001010100101101111111011010
10010001001100001110100000100000
00100001010010010000001010100101
10011001011100101010010000100010
00010000000111110100111010101101
00010100000101010111001000100011
10011110000000000011101101011011
00010011011000000110101111110010
10011100100001101001101111000111
00100101011100011000101000010010
11100010010001001001111110100011
00011001011111000000000101110000
10110000000100100010110110000011
11110110100101011001101010001110
00011111101011101111111110101001
10001000111001101001001011001101
11100101101101001101011010101010
11111000011011111101010000001000
00100011000110101100110010001100
11001111101101110110010011011011
00100011110010110110010110111100
10010010100000100000011010101111
01011111111010011111001110111101
00110000100000100111011101100011
10010000000010011010110101000011
10000111101110001110001111001010
11011000100101101011001100000111
00111110010110010100100101011100
11000110110001000101101100100011
00011001011011000000110101000100
01011100011111001110111000111000
01010110110111110111101110100010
00000111101010010010111000010000
11101100110110001010011111000011
00111101000100101100100000101010
11011110001111110100010000110001
01000110011110001101101010110010
01111010111111010110100110110000
10101011111000110011101000010100
11100101100110001010011110001011
10111000001010010010111100101111
01001100100111110101011100111010
11010010111010010011001110001011
00110010111110110111101010100011
00101101101101111011000000011101
11100101000010011000100100011001
11101111011100001100110101100011
10011011101010011000000100001000
11101111110000111011001101011010
11111101011010101100110101110101
01111000000101101100001110010111
11010101000000001010101000000100
00100000000000110100010110100101
00000111000100111010101000001110
11010111110101000111110111010011
11110000110011010101101110100100
11010011100010001111110000001010
11101111111111001010110010110100
10000000000110111011110011101011
01101111001101010011000010001000
01000111111101000100001010111000
01111000111001100100110111110000
00110011110010110100001011011100
10000001110000100111011010110011
00110000010110110100101111101101
01010101100100110111001010001010
00100011110011100011001010110100
00011101011001000010011011110011
01101101100000111101001110011110
11110101011000101100101001110010
00111111110010000100001110010101
00000001000000001010101101100110
11011101000010110010101000010001
11100101000011100001011101001011
11011100110101001100111100101010
01001111010011110101100101100000
01001111110001001011001010110011
01001101011000011000100011010100
10101001000111101100110000000101
11001100000111011100000100001001
11001010010110011000111110100010
01011110111111000111010111111010
00011100000111110011011010001101
11110110100100000110011110001011
11010000111111011100001100110100
01010001110100010110001110010100
11010010111011001010111010010000
01011001011100001010001110110110
11011100100010101001011101001001
01110001011100010100000110110100
01100110100011101101011110110100
00011001011101000000000010110101
00111111101001101111011010111100
11011001011001001001001000110101
01111111101010001000111110000101
11000001000001001011001010000110
01101110000010110010001100100100
10100011000101101001011011000110
01111100100011101111001100111100
10011001000101110001001001110101
01101101110000101100001110100001
10101001001100111010010001010100
11000100010010010010000100101001
00110110000111110101011000101110
11001110101101001011110000100010
00101010000011111000110101101100
11001111111001001010111001010000
11001000111011000000101111010101
00100001010110101111100100111101
10100111001000111010101000001010
00100011110110100100100010110001
10011010101101100010010000110001
00111011101011010100000011010100
11110000100000000110011000100011
10110000000000110010100110100011
00110101111100010011111100011000
11110000000001011011010111000110
10100111000110011001010101001000
01000111110001001101111011110110
01001001010001001000001101010101
01001101000010010010011010100000
01001110111011101010011111011001
11111100000111111100111100101100
01000110100110010101100111111000
01100010010100010000101110110101
00101100100111001011111100001010
00011001000001110111111000000000
11100100000011000010011101000001
11011100110111011100001100100000
01011111111011110101100111110000
00101111110000100011001010010000
00100101110110001010111001000101
00101011101101101101011000010101
11011000000010000010010100110101
01101011110011000001001100011010
00011000111011100101101111110010
01011101101000101011001010010110
10100101100010010010100001100111
01000010011011001111001111111110
00101000011001001110110011011101
01010011111101001100001110110111
00100000010101000101100010000110
00100011111010000000111010010001
10101001000000001011101000000111
01010000010011010011010111101010
00111110110111110101011001111011
01010000011111001111000110111010
00111110011101110110100001110101
00100011011000100111111010010001
11101001000000101011111001000110
10000000000110110000010010100111
00110110000110010111011001101010
11010000000010010010010111001110
00010110001111111101001011111010
01011100001101111111101110101101
01100110000110011000101001001100
00100111101011101100011111110010
11011010011111001010000001010101
01000101101011000011001011010110
11010000111110001100101001011101
11110111011000000001101111011011
00010000111000100011101011110110
00100111001011001110111010100100
11101000110111001011000100011011
11011101001101111111110001001110
11101110100111110101101111111001
11001101011100110001101000010011
10101100101010001111110111001010
00100100011111101101110010100101
01101100100111111100010000001000
11001110011110011010000000101001
00101110100011101101110111001010
11010100111100111011000000001101
00100101100010110111110111001000
10010100100001000100110000101001
11111010000001110101101110101100
00000001110110011111110000101001
11101010101011111101010100000001
10100100000101101110110001100100
11101110001111110101011100111001
10101111110110100101111000011001
00011011001101101110110111110010
10101011011100110010101000000101
11100001000000001010010100101011
10100010000111110100111100100101
01000011000011110110001100101011
11111111100000010011111100001011
10000001011000000001101101110010
10111100000101111001100100000111
01010101011010011000101101111000
10100011010100001001110000100111
11011011011000001000101101011000
00100111101011101100000111011010
11011000011001100010000000110101
01110101100000001111001111011110
01010000111001100100101000110101
01110100011000000110001111010111
00100000110000000011101011100110
00011010000011001010110010100000
11010010100101100001011000111111
11011100010001011111011101101010
01111110101111110101110101010000
11001100110100011111001100110011
00101110111110011100100111001100
10100011010101100100100000000101
01101111001100011110000010001000
11001111010110010001110100101001
00111000101110000100110101001000
11010101011110110001000000001101
00110111100010010111110101101010
01111100100000011010001101001001
00111011111011001001100011110001
11111100000000111100011101101001
01110111101110000000110111011010
11101000000011000000110101100101
00001111111111011001001111011011
11101111101000110011001001010011
01101001111010001010101101110010
11111100001100011101111101001111
01010111111010001011100111011010
11101000010011000000110001110100
11011111110111001010101111111001
01111111101001101011001101011111
11101001101010100110100001100110
11111111111000001000000101011011
00010001111010101000100101000000
01111011101000101000000001010110
11010011100011101000101101011011
01000100010111001110000111111110
11010110110011110110100011111011
01001100010101001100000110110101
10100110110100001101101011001100
01001010101101000100110010110101
00101010110101011011001110001101
01010100010010010011001101101010
00111100110011110111010111111010
11011100110101011011001101111110
00111110111110000110110111111011
01001010110001001100000110110111
00011010110100000100101111001100
01010111010010011101000101011010
10010110111011000101001111110010
01011110111011110011001101001010
00010110111110100011111111110011
01001010111011000011001111111110
00111010111101000000101011110101
00101011111010000010000001011000
10011001011001000010011011011111
11111100101111101101110001100110
10000000010001010101100001101100
01111111111110000110111101010101
10000000100000100111111111001110
01111000001010111010010101001101
10100011000100011001001101001101
11111001001111100101110100100010
10011011111101101001010101111110
01100101111001101111001001110000
10001100011110010000110011101100
00100010001101101001110111000101
01111111011100011010100000111100
10100011001010001010110111100001
10101011011100000010001110011110
11010000101111111101000001001100
11110000010010010111100100111000
11101100001010111010000101101011
10101111001111101011010001011011
01111100011000111101010110101010
00000111001110100101100000101100
01101111111000010110000110010010
00100001100000001011101000001110
10010000001010010011110001000011
10101111000010111011111100001011
11010000010111001101110110101011
00011010011111110101100000111100
01000111110001100011100110110010
00101000110000011001110010001100
10110011011100111100110010000110
10001001000000001010010110001001
10000010011110110000100111101010
00011010011001100110111000110111
11010111101101100011000010011110
00110100000000000110111010110111
10000001001010010011100001011011
01111000111000000110011101110111
11110010101101001000110011010110
01100000110000001100100100001100
01000011111000001000111011010011
01011000110000001010101110001110
10000001001101010011110001100111
11101000110001011101010100001110
00000011101111000001100011001010
11011010111001100000110000111111
00010011111011101011000011011010
11110010011000000010100000111101
10100000011111111000110010101100
01101000110001111100110100101100
00000011001010010010100011111000
10100010110001110011011000111111
00010000001010111111110011001001
11100010010001111111011000101111
00111101000010101100001101100101
10000111100100101001001001001010
11001000010101100100111100100101
10000110100110111101100111001100
00000010111101000101111010110101
10001000110101011010011110001100
11001101010011011011101100100001
11001111111111111000010111011010
01101000010111011101001000101000
01011110111110101100110011111100
01000011111000000110001010010100
00100000100100000010011011100111
00000110111010110010011011000011
00110000100011000111011111101011
11011100000010110011001100011010
00110100101111100111011111110011
01111110111001101011001000011100
00111000110101010000100001100101
10101111110010111100001000011110
10011011001000101010100000010001
00101101110010100010001101111110
00010111001100100001101001110010
11101111000000010110000101110111
10110101000000101000011101001011
10110101100000010011110000000011
10101101000111001001001100010001
10010100000101001011110101000011
00001011001111111001100100011000
11010001010001001001110101100011
10001111001011001001110101011101
00100111110101100101111000111101
10001001000111011010110100000000
00100011101110110100110001001000
10011010011110000110010100100011
00010001101111110100110001011110
11110010000100010110011100100001
01101001110010110011000101101011
00111101111001100110011001111111
01101000100000101101000011010101
10000101000000011001100001001101
11111011111000010100110010110111
10001000000001001011001000001110
10010000001010010011100001001011
10100100000010110001011100001010
01010000000101001101010111101110
00011111010011010101100000111101
01100111111001001000010111110110
10011011011001001000100010111100
10100101101101101101110011000110
00000101011000011000100100101100
10000010001110000010110011101010
00011000111001000010011000111111
00010000101010100011000011011110
01110110101100000110011010110111
10111110000010101011000011011010
10011101101001100010110001110101
01111000000101101100000110111110
11100111100001100001100001100101
01101111011101010100001110110100
00001000110001101011010111001100
10010001000000000010110011001011
10100101100010011011011100001010
01010000010111011101110110101010
00101110111111110101101011110100
01000000110001001011001010101001
11101010111110000000010010110001
00100011000100001101110011001111
10010001111100101110100000001000
00010010111110110001000010000010
00010010111100000110011010100010
10011010101010110011000011000101
00110000000100000110011000100010
11000101100100111001110101100011
00101100110010011101100110001000
11000011101100111001111001001110
01001100111011010110110111001000
11010100110101110101111001010010
01100110110010010100100110101000
01000000011001011100000111101111
00010110110101100101100010011110
00010011111001010010101011010101
00110000100000001010011110001111
11010000100111101110111001101010
00010000111110100111100110110000
01010100010010000101000010100011
10101010110101010101010010011111
00100101110011100010001010110101
10101000100001101011111010000111
10110111100110000010111010011000
10011000101101101111011110110111
10001011010010001010011000110010
10001111011111001010010111110011
01011100010101110001111010101111
01110111000110110111110101101000
01111111110010010100111110110011
00100001100110001111111111000011
00010000001001011010000111000111
11100011000110011000001000101101
01000011110010110100100111101010
00011011111111101010011001010110
01110000101100111011000011011010
10110000111010000010100011100001
00100011101001101101000011101110
11011011011101110010000000110101
01100011000001000010000111010111
10101000011000101001001001010111
10111010101000111101010101011110
01000010000011110111001100110110
01101111111000110011001111110110
00100001000000001010011001001110
11010010101101000100101110110110
01000010011101001101101010001100
00010111101011000001101011010011
00000000011000001010101010010110
00000100010001011011000111110011
01101100010000010010111001111100
01000010011111001000000111111000
10011010011101000110100001111101
00000011101001101100010010010100
10110010001100000111010001110101
00000110110010010011000110101001
01110101100010010010110001101110
01010100000010010010001111100000
00101110000101110101001001111110
01001000010001111111001110101100
01101100000100111001000011000101
10110000000111110101000111101111
11100111100100011101011100001010
00101000011000011001001101101011
00010101110110000010011111111011
10111100110101111101001100000111
01110101011110010100100101011000
11000000001111001100111101101010
11011110111111110101010111110000
11011110101001010011001001010111
01100001010010001001101111000001
11111111111110011100111101111010
01010001111011001111101111110010
11001011001010000110011101100000
11001010101111101011001111110111
01011110101101101110110001111100
11101000100011110100110111010101
11101111111100001100111101110010
11011001101011100001101101000101
00101001001000111111000111101011
10001111000011111011111001001011
00001001010110111110000110101011
10101111000011111101110001001010
01000010010000010110000110110111
10101111000110101010111001101011
10000000011001110101110110101011
10110111000010111011111001001010
10000000010110010001110110101011
10100111100110111101110001001010
00000000010111011010000110100111
00111111100110011010110001101000
10110000101101111001100110000011
00010111111110010110110000101001
10010000011010110001010110000111
00010111111011001100101101001000
10010010101110100011010110000111
00010100110011000100101100101011
10110111001010101011100001011010
11001111001011101010110000000011
00100101010101101001000111010111
11000110000011010101000000111000
01001101010000000110000111110100
11101110000011111101011010001010
10100111001100111010110011001011
11010010000010010001011000101100
00010110000111011100010111001110
01001110011111110110100000101010
01000100010001010011000111101000
01101110010111111110110010011111
10100111001100101101100011011101
11011111011010001110100100101101
00100110010010010000000111100011
01010111011010000010001000001110
00010000000110110011000111000110
01110110000110110111001100111001
10100011011000001011000000100001
00011000001011100010010101000001
11110111101100000101100100011011
01110001011010010101100111100100
00010111111000000011111010010101
01011001100010101011111111000111
00100011011001100010110100100101
10101001000111110001011110001111
11000011110111101100110100101000
11001111101011110101111111011000
00001111100000111011011000010100
11101100000010011000110011001001
00100000000101101110100000101100
11000111011111110000010110011001
11101000010110000000011100101000
00010110111111001111000111111011
10011111100111110110101000010100
11000100000010010110011101101011
00010111101010100100010110001001
11000100000001111111101000110110
00001001010011001011000010101001
10101110011011110010011001011001
11001100010101111111110100101000
00111111001011111101110001001001
00110011000100101101001010000011
10010001011001001010100000011010
00011000000001110010110110000101
10100101010110010111111001101010
10011000010110110111110100101111
00111101010110110101110101101011
10011011101011000001011111000011
11011011011011000010101000111100
11110000111101001001100101000111
00000101011110011000100000011000
11100010010100010001100100000111
00011011011110000010110101011010
10101001001010010100110000100001
11011101011101000010010110101011
01111000000011101100010100101100
11000110011101011001000110011001
01000000011011101100010110100100
01001110100101001010011110011111
00111011101000010010111001000111
10101001001110101010101100000100
01010010000111100101111101100110
01011011111101110100100110010100
01000010111000010011000011010010
00110010111100001010101010000111
10100111111101111111101100010011
10100001000110111101111100000100
10010111111111110011001111111011
00011001011000100111110000110110
00010111101001111011001011010111
00100001000000011000100010100111
10000111111101011011000010010000
11001000000011001010100111010111
11010111101101110111110000111100
11100000000011110101100100100111
01010111111000001011010010010000
00101010101010101011111011010110
01111101010000101100000110110101
11100101100010111000101111001101
11101111010010001100110100101000
10011011101011111011111111001010
00000101110110111011000010111000
11101010101011110000111011111101
01111100000110101000110100100100
01110111110110111110010011111010
11101000010010110010011100100000
00110110101110111100011111001001
11011100000110111101011000101100
11110110100110110101010110001001
